{"version":"1.0","truncation":null,"padding":null,"added_tokens":[{"id":0,"special":true,"content":"[PAD]","single_word":false,"lstrip":false,"rstrip":false,"normalized":false},{"id":101,"special":true,"content":"[UNK]","single_word":false,"lstrip":false,"rstrip":false,"normalized":false},{"id":102,"special":true,"content":"[CLS]","single_word":false,"lstrip":false,"rstrip":false,"normalized":false},{"id":103,"special":true,"content":"[SEP]","single_word":false,"lstrip":false,"rstrip":false,"normalized":false},{"id":104,"special":true,"content":"[MASK]","single_word":false,"lstrip":false,"rstrip":false,"normalized":false}],"normalizer":{"type":"BertNormalizer","clean_text":true,"handle_chinese_chars":true,"strip_accents":null,"lowercase":true},"pre_tokenizer":{"type":"BertPreTokenizer"},"post_processor":{"type":"TemplateProcessing","single":[{"SpecialToken":{"id":"[CLS]","type_id":0}},{"Sequence":{"id":"A","type_id":0}},{"SpecialToken":{"id":"[SEP]","type_id":0}}],"pair":[{"SpecialToken":{"id":"[CLS]","type_id":0}},{"Sequence":{"id":"A","type_id":0}},{"SpecialToken":{"id":"[SEP]","type_id":0}},{"Sequence":{"id":"B","type_id":1}},{"SpecialToken":{"id":"[SEP]","type_id":1}}],"special_tokens":{"[CLS]":{"id":"[CLS]","ids":[102],"tokens":["[CLS]"]},"[SEP]":{"id":"[SEP]","ids":[103],"tokens":["[SEP]"]}}},"decoder":{"type":"WordPiece","prefix":"##","cleanup":true},"model":{"unk_token":"[UNK]","continuing_subword_prefix":"##","max_input_chars_per_word":100,"vocab":{"[PAD]":0,"unused0":1,"unused1":2,"unused2":3,"unused3":4,"unused4":5,"unused5":6,"unused6":7,"unused7":8,"unused8":9,"unused9":10,"unused10":11,"unused11":12,"unused12":13,"unused13":14,"unused14":15,"unused15":16,"unused16":17,"unused17":18,"unused18":19,"unused19":20,"unused20":21,"unused21":22,"unused22":23,"unused23":24,"unused24":25,"unused25":26,"unused26":27,"unused27":28,"unused28":29,"unused29":30,"unused30":31,"unused31":32,"unused32":33,"unused33":34,"unused34":35,"unused35":36,"unused36":37,"unused37":38,"unused38":39,"unused39":40,"unused40":41,"unused41":42,"unused42":43,"unused43":44,"unused44":45,"unused45":46,"unused46":47,"unused47":48,"unused48":49,"unused49":50,"unused50":51,"unused51":52,"unused52":53,"unused53":54,"unused54":55,"unused55":56,"unused56":57,"unused57":58,"unused58":59,"unused59":60,"unused60":61,"unused61":62,"unused62":63,"unused63":64,"unused64":65,"unused65":66,"unused66":67,"unused67":68,"unused68":69,"unused69":70,"unused70":71,"unused71":72,"unused72":73,"unused73":74,"unused74":75,"unused75":76,"unused76":77,"unused77":78,"unused78":79,"unused79":80,"unused80":81,"unused81":82,"unused82":83,"unused83":84,"unused84":85,"unused85":86,"unused86":87,"unused87":88,"unused88":89,"unused89":90,"unused90":91,"unused91":92,"unused92":93,"unused93":94,"unused94":95,"unused95":96,"unused96":97,"unused97":98,"unused98":99,"unused99":100,"[UNK]":101,"[CLS]":102,"[SEP]":103,"[MASK]":104,"##er":105,"##en":106,"d":107,"##ch":108,"##ei":109,"s":110,"##ie":111,"##un":112,"a":113,"i":114,"##st":115,"w":116,"b":117,"##ge":118,"##ein":119,"m":120,"##an":121,"v":122,"##on":123,"##te":124,"die":125,"un":126,"der":127,"##sch":128,"##ich":129,"f":130,"##es":131,"n":132,"##in":133,"h":134,"k":135,"z":136,"##ar":137,"##or":138,"ein":139,"##ung":140,"##it":141,"in":142,"und":143,"##ur":144,"au":145,"##ll":146,"##as":147,"##at":148,"##hr":149,"##al":150,"ge":151,"p":152,"##ten":153,"##de":154,"l":155,"g":156,"r":157,"##em":158,"er":159,"t":160,"##gen":161,"##au":162,"##ter":163,"1":164,"##der":165,"##den":166,"zu":167,"an":168,"##el":169,"ver":170,"##et":171,"##ber":172,"das":173,"j":174,"##ach":175,"##am":176,"##is":177,"##ir":178,"den":179,"##ti":180,"##lich":181,"##ür":182,"mit":183,"be":184,"von":185,"##om":186,"##isch":187,"##eit":188,"sch":189,"2":190,"##ier":191,"##ol":192,"auf":193,"(":194,"##um":195,"st":196,"im":197,"##ck":198,"##ro":199,"o":200,"##ben":201,"##icht":202,"##ent":203,"##eu":204,"##ra":205,"##se":206,"ist":207,"sie":208,"##ig":209,"des":210,"##and":211,"e":212,"##ion":213,"##il":214,"\"":215,"aus":216,"für":217,"##sen":218,"##re":219,"al":220,"##ft":221,"##us":222,"-":223,"so":224,"##ann":225,"##rei":226,"##ste":227,"wir":228,"##ahr":229,"##men":230,"##le":231,"dem":232,"es":233,"##hn":234,"sich":235,"##ag":236,"nicht":237,"eine":238,"c":239,"##sp":240,"20":241,"19":242,"##ff":243,"bei":244,"##ab":245,"##über":246,"##än":247,"re":248,"vor":249,"als":250,"##ischen":251,"##och":252,"nach":253,"sp":254,"##hl":255,"##ik":256,"##ut":257,"war":258,"##ien":259,"ich":260,"wer":261,"über":262,"##ungen":263,"wur":264,"##kt":265,"am":266,"sein":267,"##ver":268,"##iel":269,"ab":270,"um":271,"##wei":272,"##ind":273,"##scha":274,"##ehr":275,"##sten":276,"auch":277,"##ern":278,"##he":279,"##eich":280,"wie":281,"##ser":282,"unter":283,"##ri":284,"##ne":285,"##ger":286,"##etz":287,"##ation":288,"##ad":289,"##lle":290,"##be":291,"hat":292,"##eil":293,"ihr":294,"##hen":295,"##os":296,"##ul":297,"da":298,"##ort":299,"##und":300,"fr":301,"##op":302,"##ot":303,"##im":304,"ent":305,"##ing":306,"ar":307,"jahr":308,"wurde":309,"##ungs":310,"##ün":311,"ber":312,"##ru":313,"##llen":314,"pro":315,"##nen":316,"##schaft":317,"werden":318,"##urch":319,"##aus":320,"sind":321,"ha":322,"##ster":323,"##gt":324,"##chen":325,"##00":326,"zur":327,"##lie":328,"durch":329,"3":330,"##ang":331,"##ät":332,"##ör":333,"##mer":334,"##är":335,"bis":336,"##sam":337,"201":338,"##ön":339,"##ht":340,"wei":341,"##rie":342,"einer":343,"kom":344,"##ische":345,"wird":346,"dass":347,"zum":348,"##cht":349,"##la":350,"##tel":351,"##hal":352,"##all":353,"##ed":354,"gr":355,"##anz":356,"##wer":357,"##rä":358,"was":359,"oder":360,"##enn":361,"##tet":362,"##end":363,"wo":364,"##ück":365,"einen":366,"kon":367,"se":368,"##gr":369,"her":370,"##tig":371,"##ah":372,"##zu":373,"##her":374,"##fen":375,"du":376,"einem":377,"##kti":378,"##lichen":379,"##pp":380,"ste":381,"all":382,"##che":383,"##gel":384,"kl":385,"##..":386,"##art":387,"##schl":388,"##ill":389,"##mein":390,"##ige":391,"br":392,"##ühr":393,"##eut":394,"we":395,"le":396,"eur":397,"200":398,"##we":399,"kön":400,"aber":401,"ma":402,"##ist":403,"##ank":404,"##igen":405,"##zen":406,"##iv":407,"##ner":408,"0":409,"##iert":410,"##uss":411,"ch":412,"##ick":413,"noch":414,"##geb":415,"neu":416,"mehr":417,"u":418,"##ahl":419,"man":420,"dies":421,"en":422,"haben":423,"##qu":424,"##ähr":425,"##for":426,"##fe":427,"##og":428,"##eine":429,"##bl":430,"zwei":431,"##stell":432,"de":433,"##ic":434,"nur":435,"##me":436,"##bt":437,"##schen":438,"##iz":439,"##liche":440,"##atz":441,"##ord":442,"bes":443,"bet":444,"te":445,"##elt":446,"##eiten":447,"##eits":448,"dar":449,"4":450,"ander":451,"deut":452,"gl":453,"##ass":454,"##ers":455,"##auf":456,"gew":457,"##ap":458,"gen":459,"##du":460,"18":461,"zw":462,"##aten":463,"lie":464,"ne":465,"gegen":466,"##ess":467,"##ze":468,"##acht":469,"##rit":470,"5":471,"vom":472,"„":473,"##lin":474,"ei":475,"##ßen":476,"fe":477,"gemein":478,"##fer":479,"arb":480,"##det":481,"##ho":482,"ho":483,"##\",":484,"##uch":485,"##tern":486,"##ant":487,"hin":488,"##tes":489,"weiter":490,"gro":491,"##abe":492,"##bar":493,"##etzt":494,"##pl":495,"komm":496,"##...":497,"##kl":498,"##adt":499,"##dem":500,"##nis":501,"##br":502,"kann":503,"##gl":504,"##ges":505,"##ffen":506,"diese":507,"mar":508,"wenn":509,"##del":510,"##arb":511,"##keit":512,"et":513,"##ss":514,"##wie":515,"##äch":516,"ger":517,"##fl":518,"##ommen":519,"##mal":520,"##ia":521,"##dern":522,"for":523,"##ts":524,"fl":525,"##äu":526,"##ok":527,"land":528,"sa":529,"zeit":530,"bl":531,"hier":532,"##alt":533,"##ha":534,"##ktion":535,"##ieren":536,"##fahr":537,"##ob":538,"##tt":539,"7":540,"sei":541,"europ":542,"##id":543,"##neh":544,"##20":545,"the":546,"##ak":547,"##iss":548,"je":549,"ihn":550,"fin":551,".":552,"gesch":553,"wieder":554,"##pf":555,"soll":556,"##ild":557,"##führ":558,"##ast":559,"##ße":560,"pol":561,"##mit":562,"##oll":563,"geb":564,"##heit":565,"##teil":566,"6":567,"##assen":568,"spiel":569,"##ken":570,"tr":571,"##äl":572,"##fol":573,"##imm":574,"##zi":575,"reg":576,"dieser":577,"##rag":578,"##),":579,"son":580,"ins":581,"teil":582,"##nah":583,"##ler":584,"##ud":585,"pl":586,"##wa":587,"##).":588,"können":589,"199":590,"##spiel":591,"##ekt":592,"##utz":593,"##glich":594,"wurden":595,"##ov":596,"ihre":597,"##reich":598,"th":599,"##itz":600,"##urg":601,"##vor":602,"##ierung":603,"##üt":604,"##amm":605,"ö":606,"##ert":607,"##ma":608,"##ale":609,"seine":610,"ro":611,"##ke":612,"##att":613,"dam":614,"##hm":615,"ja":616,"seit":617,"hatte":618,"##bst":619,"dann":620,"to":621,"gel":622,"##unden":623,"8":624,"##ität":625,"##ften":626,"##ce":627,"##stand":628,"##schie":629,"or":630,"zwischen":631,"##pr":632,"mö":633,"##age":634,"verl":635,"ange":636,"ko":637,"gi":638,"##hör":639,"##pt":640,"zusam":641,"##ug":642,"##19":643,"par":644,"##alen":645,"##glie":646,"zusammen":647,"schl":648,"stadt":649,"el":650,"##wo":651,"sel":652,"##gan":653,"##reis":654,"##1.":655,"##ard":656,"mich":657,"##sta":658,"waren":659,"##ßer":660,"##//":661,"10":662,"verb":663,"nie":664,"##per":665,"fol":666,"##änd":667,"##land":668,"##sche":669,"##ingen":670,"eines":671,"##ierte":672,"ges":673,"##aum":674,"##ay":675,"alle":676,"##ow":677,"9":678,"##form":679,"##eist":680,"sowie":681,"##://":682,"##dr":683,"##ischer":684,"##net":685,"mon":686,"mein":687,"##zeit":688,"##aut":689,"##iger":690,"habe":691,"##si":692,"##eid":693,"##nung":694,"men":695,"15":696,"##üs":697,"##ust":698,"##ahn":699,"qu":700,"##io":701,"##tschaft":702,"##wick":703,"uns":704,"viel":705,"##tr":706,"mus":707,"min":708,"schon":709,"##lung":710,"ex":711,"pr":712,"##änder":713,"##achen":714,"sag":715,"htt":716,"http":717,"##2.":718,"schw":719,"##iele":720,"drei":721,"mir":722,"unser":723,"##wir":724,"leben":725,"##nehmen":726,"eigen":727,"##burg":728,"##sk":729,"jahre":730,"##kte":731,"##eute":732,"##zeu":733,"mo":734,"17":735,"##kommen":736,"seiner":737,"##pro":738,"welt":739,"besch":740,"##fin":741,"##andel":742,"kam":743,"best":744,"##halten":745,"bez":746,"##fr":747,"europä":748,"beg":749,"me":750,"##\".":751,"##fü":752,"sta":753,"jahren":754,"##oren":755,"ur":756,"##ve":757,"dir":758,"erst":759,"##ett":760,"##issen":761,"##ue":762,"198":763,"##ph":764,"##uß":765,"##eister":766,"##tigen":767,"##ition":768,"##tem":769,"##ember":770,"##10":771,"ausge":772,"gibt":773,"mal":774,"keine":775,"##ater":776,"vers":777,"##bau":778,"hei":779,"pers":780,"##kel":781,"##ähl":782,"will":783,"verw":784,"##ission":785,"16":786,"jo":787,"immer":788,"sehr":789,"y":790,"##rupp":791,"hau":792,"##vers":793,"##ate":794,"##zent":795,"##ragen":796,"##ließ":797,"–":798,"##fall":799,"beim":800,"##hne":801,"kr":802,"##min":803,"##fs":804,"##ats":805,",":806,"##000":807,"recht":808,"##str":809,"##nte":810,"##spr":811,"##chs":812,"##onder":813,"##satz":814,"mitglie":815,"##chn":816,"##tion":817,"##ks":818,"##orden":819,"kur":820,"##hei":821,"zurück":822,"us":823,"is":824,"##gend":825,"sü":826,"##berg":827,"##hin":828,"gleich":829,"daß":830,"hö":831,"gut":832,"bo":833,"fest":834,"ganz":835,"einz":836,"entwick":837,"frei":838,"ob":839,"##di":840,"##annt":841,"führ":842,"doch":843,"bau":844,"jed":845,"su":846,":":847,"selbst":848,"##ans":849,"gef":850,"stra":851,"##mann":852,"##ationen":853,"grund":854,"##was":855,"14":856,"##tag":857,"wen":858,"kein":859,"em":860,"on":861,"aut":862,"##gesch":863,"ersten":864,"damit":865,"vert":866,"##tete":867,"kin":868,"##3.":869,"##weise":870,"##ine":871,"##stag":872,"##ffent":873,"bek":874,"##geben":875,"uhr":876,"##yst":877,"po":878,"##inn":879,"diesem":880,"(1":881,"##ding":882,"##ens":883,"frau":884,"währ":885,"##anden":886,"##ald":887,"##ium":888,"dr":889,"##enz":890,"##öl":891,"##kehr":892,"of":893,"##atur":894,"##cken":895,"##fel":896,"##gung":897,"##olog":898,"eu":899,"he":900,"müs":901,"1.":902,"tra":903,"verein":904,"##gang":905,"##mar":906,"sti":907,"gu":908,"jun":909,"##unde":910,"##iet":911,"##com":912,"197":913,"##ian":914,"##dert":915,"eben":916,"anderen":917,"##na":918,"##tige":919,"##halb":920,"vier":921,"##ystem":922,"and":923,"bin":924,"bel":925,"sicher":926,"##201":927,"co":928,"##stra":929,"##haus":930,"##undes":931,"##stellt":932,"prä":933,"##eiter":934,"bereits":935,"##ga":936,"##rich":937,"fahr":938,"##amil":939,"##rieb":940,"intern":941,"wür":942,"herr":943,"inter":944,"##bo":945,"mann":946,"##ker":947,"ihrer":948,"dort":949,"##ativ":950,"jetzt":951,"produ":952,"##bild":953,"##tier":954,"##gs":955,"##chte":956,"##kon":957,"##ös":958,"##unter":959,"##/1":960,"12":961,"##ult":962,"##äd":963,"##lage":964,"erfol":965,"##hol":966,"##ache":967,"nam":968,"it":969,"##als":970,"dieses":971,"während":972,"##cher":973,"lu":974,"##äter":975,"haus":976,"##ta":977,"##gte":978,"##fte":979,"person":980,"kommission":981,"##rist":982,"gehör":983,"##ärz":984,"zahl":985,"dab":986,"##ander":987,"ihm":988,"ihnen":989,"denn":990,"entsch":991,"kar":992,"dabei":993,"heute":994,"jedoch":995,"##schland":996,"##ww":997,"##esen":998,"ort":999,"nun":1000,"##/0":1001,"##mittel":1002,"##ange":1003,"##richt":1004,"##ub":1005,"##sehen":1006,"##auer":1007,"ben":1008,"gem":1009,"dien":1010,"##igkeit":1011,"menschen":1012,"frü":1013,"##äm":1014,"neue":1015,"##:0":1016,"##samt":1017,"sol":1018,"##setz":1019,"groß":1020,"##www":1021,"letz":1022,"##schaften":1023,"klein":1024,"##sto":1025,"##ffe":1026,"möglich":1027,"rei":1028,"arbeit":1029,"##gemein":1030,"hoch":1031,"##lo":1032,"di":1033,"etwa":1034,"ra":1035,"##co":1036,"##ister":1037,"##rat":1038,"##ober":1039,"ph":1040,"##gar":1041,"näch":1042,"##halt":1043,"##30":1044,"erw":1045,"euro":1046,"##ütz":1047,"##schieden":1048,"ober":1049,"##licher":1050,"mitglied":1051,"##ionen":1052,"ihren":1053,"polit":1054,"muss":1055,"ende":1056,"stell":1057,"la":1058,"##:1":1059,"süd":1060,"/":1061,"geht":1062,"seinen":1063,"##eln":1064,"europäischen":1065,"star":1066,"part":1067,"wel":1068,"##orf":1069,"aller":1070,"2016":1071,"##ständ":1072,"##ven":1073,"fa":1074,"bundes":1075,"na":1076,"beste":1077,"grö":1078,"dich":1079,"##stellung":1080,"lin":1081,"deutschland":1082,"ohne":1083,"bür":1084,"mittel":1085,"##ko":1086,"hal":1087,"##fahren":1088,"##zeich":1089,"wirtschaft":1090,"unternehmen":1091,"ta":1092,"##ünf":1093,"folgen":1094,"famil":1095,"ser":1096,"##lagen":1097,"##unkt":1098,"##ym":1099,"##are":1100,"##jähr":1101,"##ossen":1102,"##rechen":1103,"##kr":1104,"grün":1105,"##so":1106,"11":1107,"fil":1108,"##für":1109,"##ichte":1110,"##zei":1111,"einge":1112,"müssen":1113,"erh":1114,"ant":1115,"##hau":1116,"kir":1117,"ern":1118,"wissen":1119,"##50":1120,"##ichtig":1121,"##dent":1122,"aug":1123,"##eicht":1124,"abge":1125,"30":1126,"##ält":1127,"später":1128,"kinder":1129,"##je":1130,"str":1131,"##bes":1132,"jul":1133,"viele":1134,"einf":1135,"jan":1136,"##:2":1137,"x":1138,"##nahme":1139,"196":1140,"sozi":1141,"##pa":1142,"inform":1143,"##ational":1144,"##od":1145,"ru":1146,"spr":1147,"##man":1148,"##mus":1149,"##bru":1150,"gest":1151,"##ritt":1152,"märz":1153,"##cke":1154,"##ade":1155,"seinem":1156,"pf":1157,"*":1158,"außer":1159,"##klär":1160,"ir":1161,"##ierten":1162,"mill":1163,"neuen":1164,"##isten":1165,"##nisse":1166,"stand":1167,"lei":1168,"uni":1169,"##zw":1170,"##nahmen":1171,"andere":1172,"##omm":1173,"##ds":1174,"##legen":1175,"stud":1176,"alles":1177,"weiß":1178,"kommen":1179,"##ule":1180,"fre":1181,"etwas":1182,"##zie":1183,"##euer":1184,"besonder":1185,"gar":1186,"##asse":1187,"erste":1188,"form":1189,"nov":1190,"##5.":1191,"##:4":1192,"##meister":1193,"wohn":1194,"##ip":1195,"weil":1196,"sep":1197,"##stadt":1198,"##ys":1199,"##keiten":1200,"##fa":1201,"##arbeit":1202,"194":1203,"##th":1204,"zei":1205,"##des":1206,"%":1207,"##äre":1208,"##gleich":1209,"##heim":1210,"##fo":1211,"##eter":1212,"##bei":1213,"arbeits":1214,"gemeinschaft":1215,"##4.":1216,"##sell":1217,"13":1218,"frank":1219,"##igung":1220,"lang":1221,"##dien":1222,"##angen":1223,"##alis":1224,"##yp":1225,"li":1226,"##ffentlich":1227,"##gramm":1228,"##zahl":1229,"nord":1230,"##ere":1231,"##nit":1232,"rück":1233,"liegt":1234,"##hof":1235,"not":1236,"##ct":1237,"##von":1238,"haupt":1239,"schul":1240,"med":1241,"##äß":1242,"hand":1243,"handel":1244,"##innen":1245,"##oss":1246,"##ordnung":1247,"##blem":1248,"berlin":1249,"bede":1250,"##äng":1251,"##200":1252,"##tikel":1253,"also":1254,"neben":1255,"##rage":1256,"##immer":1257,"##pu":1258,"##lam":1259,"machen":1260,"weg":1261,"##:3":1262,"##ruck":1263,"nieder":1264,"##eg":1265,"pri":1266,"##sicht":1267,"weitere":1268,"worden":1269,"##alien":1270,"lo":1271,"gab":1272,"##ende":1273,"rund":1274,"##änger":1275,"finanz":1276,"##werk":1277,"##kten":1278,"techn":1279,"##ogen":1280,"dazu":1281,"bild":1282,"ju":1283,"verschieden":1284,"musik":1285,"juni":1286,"##ina":1287,"##ott":1288,"##grund":1289,"nein":1290,"##wend":1291,"per":1292,"##gangen":1293,"##ruppe":1294,"##wohn":1295,"pa":1296,"##zer":1297,"##ller":1298,"##hmen":1299,"##bahn":1300,"##esse":1301,"gra":1302,"##fä":1303,"##uten":1304,"##olit":1305,"##ikan":1306,"konnte":1307,"##ätz":1308,"##ies":1309,"##falls":1310,"##ations":1311,"##enden":1312,"##ktur":1313,"##if":1314,"deutschen":1315,"erl":1316,"statt":1317,"...":1318,"gemeinsam":1319,"op":1320,"bereich":1321,"##8.":1322,"—":1323,"##stellen":1324,"##ka":1325,"##hem":1326,"beiden":1327,"##gew":1328,"##hand":1329,"##itzen":1330,"##ball":1331,"##bs":1332,"##jahr":1333,"beru":1334,"ad":1335,"##reten":1336,"wirk":1337,"##igt":1338,"tag":1339,"voll":1340,"##tember":1341,"wasser":1342,"zun":1343,"diesen":1344,"##sa":1345,"##fern":1346,"sagte":1347,"##ätig":1348,"##gaben":1349,"##7.":1350,"nr":1351,"##ment":1352,"##:5":1353,"##amp":1354,"##ite":1355,"august":1356,"##uar":1357,"apr":1358,"##tro":1359,"##hun":1360,"okt":1361,"##6.":1362,"bil":1363,"woch":1364,"könig":1365,"km":1366,"##ganis":1367,"##grün":1368,"tro":1369,"sollte":1370,"bestimm":1371,"mai":1372,"dan":1373,"sehen":1374,"erz":1375,"+":1376,"##iff":1377,"schwer":1378,"unterst":1379,"hotel":1380,"anf":1381,"steht":1382,"september":1383,"allem":1384,"sondern":1385,"##welt":1386,"##anken":1387,"meine":1388,"poliz":1389,"richt":1390,"region":1391,"schne":1392,"##ünst":1393,"wa":1394,"##üb":1395,"bef":1396,"dez":1397,"verfü":1398,"##ucht":1399,"##iere":1400,"gemeinde":1401,"##achte":1402,"juli":1403,"##altung":1404,"oktober":1405,"einige":1406,"ersch":1407,"##spro":1408,"##ison":1409,"hol":1410,"##umen":1411,"##tz":1412,"univers":1413,"platz":1414,"bürger":1415,"##ktiv":1416,"verk":1417,"november":1418,"##par":1419,"som":1420,"artikel":1421,"##kun":1422,"ze":1423,"einzel":1424,"sagt":1425,"spe":1426,"januar":1427,"##scher":1428,"##führt":1429,"##ielt":1430,"##reg":1431,"scha":1432,"##reichen":1433,"##zeug":1434,"hinter":1435,"##ultur":1436,"mün":1437,"franz":1438,"##bet":1439,"bar":1440,"##itu":1441,"ka":1442,"##ahmen":1443,"##ive":1444,"##entr":1445,"vol":1446,"##ore":1447,"hät":1448,"##aufen":1449,"dezember":1450,"verm":1451,"##tigt":1452,"problem":1453,"nichts":1454,"blei":1455,"##9.":1456,"bit":1457,"##bach":1458,"denen":1459,"april":1460,"##gie":1461,"[":1462,"##mm":1463,"regel":1464,"aufge":1465,"jahrhun":1466,"##yn":1467,"beispiel":1468,"##recht":1469,"##hlen":1470,"prozent":1471,"##äft":1472,"##org":1473,"wegen":1474,"erklär":1475,"##da":1476,"hil":1477,"at":1478,"rat":1479,"ä":1480,"fünf":1481,"##htm":1482,"##chten":1483,"sam":1484,"##eitet":1485,"kommt":1486,"##rieben":1487,"##elle":1488,"##stein":1489,"##trag":1490,"##schlossen":1491,"fer":1492,"##essen":1493,"darauf":1494,"##ände":1495,"##sident":1496,"kurz":1497,"bie":1498,"##ou":1499,"##ca":1500,"film":1501,"##ib":1502,"hel":1503,"vie":1504,"(2":1505,"##orgen":1506,"##genommen":1507,"fall":1508,"krie":1509,"##ennen":1510,"##wohl":1511,"hast":1512,"würde":1513,"##ändern":1514,"##zug":1515,"frie":1516,"offen":1517,"##ließlich":1518,"##prä":1519,"##schri":1520,"##ßt":1521,"##wort":1522,"lebens":1523,"##up":1524,"195":1525,"##wirtschaft":1526,"##raft":1527,"befin":1528,"personen":1529,"lassen":1530,"finden":1531,"2.":1532,"einfach":1533,"193":1534,"##punkt":1535,"##one":1536,"&":1537,"##ont":1538,"entwicklung":1539,"##ide":1540,"##sellschaft":1541,"##ba":1542,"ihrem":1543,"##gehen":1544,"##sterreich":1545,"kap":1546,"##vo":1547,"art":1548,"reich":1549,"##ckt":1550,"fort":1551,"##straße":1552,"##zentr":1553,"maß":1554,"##schluss":1555,"them":1556,"rechts":1557,"macht":1558,"##iker":1559,"##gabe":1560,"west":1561,"hatten":1562,"dis":1563,"##iner":1564,"##no":1565,"zweiten":1566,"##sie":1567,"ol":1568,"wahr":1569,"##eite":1570,"großen":1571,"landes":1572,"##sh":1573,"heraus":1574,"tun":1575,"##ew":1576,"##äf":1577,"##legt":1578,"##lament":1579,"##po":1580,"##äs":1581,"##wert":1582,"##ager":1583,"##urt":1584,"polizei":1585,"woll":1586,"##weil":1587,"gener":1588,"inner":1589,"new":1590,"res":1591,"glau":1592,"##inger":1593,"##eidung":1594,"##nten":1595,"christ":1596,"kat":1597,"##schutz":1598,"##mo":1599,"prof":1600,"##staaten":1601,"nat":1602,"#":1603,"##obil":1604,"##jekt":1605,"seite":1606,"##ins":1607,"##dings":1608,"##gri":1609,"kü":1610,"kosten":1611,"##ählt":1612,"dafür":1613,"don":1614,"dank":1615,"com":1616,"##arr":1617,"##cker":1618,"##mö":1619,"deren":1620,"cl":1621,"nor":1622,"akt":1623,"rich":1624,"##schnit":1625,"##iga":1626,"##üss":1627,"##ice":1628,"##ennt":1629,"große":1630,"erfolg":1631,"##itel":1632,"bed":1633,"##opp":1634,"gehen":1635,"##mals":1636,"##dung":1637,"##use":1638,"umf":1639,"rahmen":1640,"fuß":1641,"»":1642,"2015":1643,"##ruktur":1644,"##ächst":1645,"kun":1646,"##:00":1647,"frauen":1648,"##öffentlich":1649,"fun":1650,"##bildung":1651,"##derung":1652,"zentr":1653,"##ichts":1654,"##feld":1655,"##sprechen":1656,"##kunft":1657,"inst":1658,"##icher":1659,"fern":1660,"##ron":1661,"##raum":1662,"##utter":1663,"allerdings":1664,"ziel":1665,"daten":1666,"##achsen":1667,"end":1668,"##25":1669,"wollen":1670,"##eitung":1671,"##bruar":1672,"25":1673,"##az":1674,"stehen":1675,"parlament":1676,"##los":1677,"##anst":1678,"##führung":1679,"##gegen":1680,"##ruppen":1681,"unsere":1682,"##ingt":1683,"mitt":1684,"##sted":1685,"februar":1686,"##platz":1687,"##ity":1688,"##urn":1689,"davon":1690,"##achten":1691,"ide":1692,"sk":1693,"angeb":1694,"(*":1695,"21":1696,"##schw":1697,"bas":1698,"##pe":1699,"##eile":1700,"##schlag":1701,"qual":1702,"letzten":1703,"##bert":1704,"##inen":1705,"##tiert":1706,"sport":1707,"##heits":1708,"##gesamt":1709,"##verb":1710,"##eig":1711,"mil":1712,"werde":1713,"##blik":1714,"2010":1715,"##asst":1716,"wahl":1717,"##....":1718,"ba":1719,"##rad":1720,"allen":1721,"europa":1722,"##annte":1723,"bu":1724,"##cl":1725,"con":1726,"##eiden":1727,"ter":1728,"get":1729,"pm":1730,"##bung":1731,"##kreis":1732,"##orn":1733,"millionen":1734,"einmal":1735,"veröffentlich":1736,"##ci":1737,"saison":1738,"tre":1739,"wohl":1740,"aussch":1741,"bekannt":1742,"bist":1743,"met":1744,"unterstütz":1745,"besuch":1746,"22":1747,"##su":1748,"##die":1749,"##schule":1750,"##ologie":1751,"##hält":1752,"dessen":1753,"system":1754,"##leist":1755,"alt":1756,"insgesamt":1757,"##bereich":1758,"##amer":1759,"##minister":1760,"besser":1761,"##ex":1762,"san":1763,"bezeich":1764,"wor":1765,"##nehmer":1766,"##äten":1767,"##auch":1768,"namen":1769,"##ums":1770,"dein":1771,"##zt":1772,"##stehen":1773,"##teilung":1774,"##8,":1775,"hör":1776,"italien":1777,"##bend":1778,"hab":1779,"##schied":1780,"jugend":1781,"##ätze":1782,"##-1":1783,"kunst":1784,"flug":1785,"##gesetzt":1786,"##ator":1787,"##-0":1788,"rel":1789,"pass":1790,"##bel":1791,"drit":1792,"buch":1793,"sollen":1794,"organis":1795,"##son":1796,"ebenfalls":1797,"verkehr":1798,"car":1799,"lehr":1800,"##weg":1801,"könnte":1802,"sozial":1803,"verbr":1804,"##con":1805,"kultur":1806,"##dorf":1807,"##ell":1808,"lange":1809,"män":1810,"beschäf":1811,"bay":1812,"wäre":1813,"mer":1814,"##hle":1815,"eg":1816,"österreich":1817,"fä":1818,"##lungen":1819,"ev":1820,"##fon":1821,"##uer":1822,"50":1823,"##ech":1824,"##hung":1825,"nächte":1826,"##old":1827,"##ika":1828,"##handel":1829,"##ationalen":1830,"priv":1831,"##hö":1832,"sagen":1833,"##agt":1834,"as":1835,"zunächst":1836,"##22":1837,"los":1838,"vo":1839,"##annten":1840,"##abl":1841,"##chsel":1842,"##mäß":1843,"tim":1844,"heim":1845,"##anten":1846,"bahn":1847,"dre":1848,"för":1849,"pos":1850,"100":1851,"ii":1852,"##ase":1853,"engl":1854,"bitte":1855,"##our":1856,"##fil":1857,"##auft":1858,"wichtig":1859,"##199":1860,"mag":1861,"dienst":1862,"direkt":1863,"2011":1864,"preis":1865,"##ffiz":1866,"geschäft":1867,"##einander":1868,"##erst":1869,"jahres":1870,"##olf":1871,"##eren":1872,"2009":1873,"markt":1874,"schwei":1875,"ehem":1876,"außerdem":1877,"##setzung":1878,"##mel":1879,"##tlich":1880,"indu":1881,"##wahl":1882,"sen":1883,"##hil":1884,"win":1885,"abs":1886,"##oten":1887,"##dete":1888,"23":1889,"##gestellt":1890,"##olitik":1891,"##auen":1892,"pu":1893,"##/201":1894,"##assung":1895,"natur":1896,"sal":1897,"geld":1898,"##isches":1899,"##öff":1900,"zie":1901,"fot":1902,"gehört":1903,"ergeb":1904,"familie":1905,"##stat":1906,"erhalten":1907,"##ps":1908,"##igten":1909,"wi":1910,"##\")":1911,"weit":1912,"rad":1913,"ag":1914,"##wor":1915,"##ichten":1916,"natür":1917,"##uhr":1918,"##stimm":1919,"##aub":1920,"##aul":1921,"24":1922,"##kur":1923,"betrieb":1924,"##ellen":1925,"ener":1926,"mei":1927,"##stens":1928,"##ign":1929,"ca":1930,"##heiten":1931,"fast":1932,"forsch":1933,"##forder":1934,"##ock":1935,"##druck":1936,"tätig":1937,"jeder":1938,"deutsche":1939,"tür":1940,"geben":1941,"3.":1942,"pat":1943,"##jährige":1944,"##ül":1945,"nah":1946,"klar":1947,"welche":1948,"##ktor":1949,"##ogra":1950,"zehn":1951,"##mon":1952,"##alter":1953,"allgemein":1954,"##ktionen":1955,"##18":1956,"national":1957,"##spl":1958,"##äuf":1959,"leist":1960,"ging":1961,"##sätz":1962,"krit":1963,"?":1964,"verst":1965,"zwar":1966,"rom":1967,"2012":1968,"2014":1969,"warum":1970,"##änge":1971,"##ure":1972,"##hel":1973,"##ja":1974,"##ölker":1975,"##ative":1976,"anfang":1977,"2013":1978,"##vest":1979,"2007":1980,"##esser":1981,"##krie":1982,"gerade":1983,"kn":1984,"ed":1985,"vergangen":1986,"##spieler":1987,"##besonder":1988,"nä":1989,"fir":1990,"bew":1991,"plan":1992,"##red":1993,"darüber":1994,"besonders":1995,"ok":1996,"ehr":1997,"üb":1998,"this":1999,"##15":2000,"einsatz":2001,"_":2002,"brau":2003,"frage":2004,"##ismus":2005,"##äss":2006,"##bewer":2007,"##istor":2008,"##vert":2009,"char":2010,"##ieg":2011,"staats":2012,"jeweil":2013,"mark":2014,"12.":2015,"kirche":2016,"französ":2017,"##llt":2018,"dür":2019,"betr":2020,"sitz":2021,"##ance":2022,"##fft":2023,"##besondere":2024,"##,5":2025,"##linie":2026,"##arten":2027,"wirklich":2028,"nachdem":2029,"arbeiten":2030,"schnell":2031,"##sport":2032,"luft":2033,"##ppen":2034,"indust":2035,"pra":2036,"genau":2037,"gesam":2038,"schön":2039,"##3)":2040,"##ek":2041,"team":2042,"ind":2043,"gesamt":2044,"alter":2045,"##ings":2046,"wich":2047,"abl":2048,"entsprechen":2049,"sohn":2050,"aufgrund":2051,"##reise":2052,"russ":2053,"##ac":2054,"##üssel":2055,"##endet":2056,"##licht":2057,"##xt":2058,"“":2059,"##äude":2060,"rein":2061,"bzw":2062,"zudem":2063,"gesetz":2064,"sechs":2065,"##räge":2066,"ged":2067,"gil":2068,"familien":2069,"##opf":2070,"##lleicht":2071,"##verkehr":2072,"##80":2073,"anderem":2074,"'":2075,"##ise":2076,"##yl":2077,"€":2078,"##üf":2079,"stellen":2080,"elekt":2081,"usa":2082,"sh":2083,"do":2084,"fel":2085,"wochen":2086,"wert":2087,"programm":2088,"##zogen":2089,"##fort":2090,"wollte":2091,"##nam":2092,"größ":2093,"kreis":2094,"mü":2095,"gegenüber":2096,"##utt":2097,"10.":2098,"sc":2099,"bezie":2100,"##part":2101,"setz":2102,"19.":2103,"vielleicht":2104,"2018":2105,"##ette":2106,"partei":2107,"##system":2108,"komp":2109,"##stück":2110,"insbesondere":2111,"##ewg":2112,"##hann":2113,"(\"":2114,"##ichtet":2115,"laut":2116,"##ünd":2117,"titel":2118,"regierung":2119,"befindet":2120,"erd":2121,"##nete":2122,"ansch":2123,"##äche":2124,"informationen":2125,"fo":2126,"hätte":2127,"universität":2128,"gemacht":2129,"ehemal":2130,"##60":2131,"amer":2132,"40":2133,"vielen":2134,"##ande":2135,"##verl":2136,"nutz":2137,"##sitzen":2138,"tor":2139,"oft":2140,"union":2141,"beginn":2142,"##uren":2143,"##que":2144,"fehl":2145,"arch":2146,"##yr":2147,"span":2148,"unbe":2149,"##ial":2150,"##kir":2151,"sollten":2152,"ham":2153,"##häng":2154,"##aren":2155,"##eigen":2156,"##21":2157,"beit":2158,"##ierungs":2159,"##anc":2160,"fü":2161,"##sl":2162,"##eitag":2163,"##jo":2164,"##int":2165,"##markt":2166,"fach":2167,"mitgliedstaaten":2168,"go":2169,"bü":2170,"beteil":2171,"staat":2172,"vorge":2173,"stre":2174,"2006":2175,"##hein":2176,"port":2177,"##emen":2178,"freund":2179,"##wehr":2180,"weniger":2181,"euch":2182,"mehrere":2183,"##24":2184,"daher":2185,"präsident":2186,"##ond":2187,"kommun":2188,"gesp":2189,"feuer":2190,"##fest":2191,"umwelt":2192,"sonn":2193,"har":2194,"20.":2195,"##ären":2196,"eigenen":2197,"bisher":2198,"##inner":2199,"industrie":2200,"##arbeiter":2201,"bi":2202,"trotz":2203,"lit":2204,"##ome":2205,"vater":2206,"möchte":2207,"##cu":2208,"unterschied":2209,"##wohner":2210,"geschichte":2211,"änder":2212,"##stelle":2213,"entscheidung":2214,"wes":2215,"künst":2216,"##onnen":2217,"##verein":2218,"sommer":2219,"gott":2220,"tele":2221,"schwe":2222,"##ly":2223,"##dienst":2224,"ak":2225,"##gebiet":2226,"##ote":2227,"spielen":2228,"schwar":2229,"##aler":2230,"wett":2231,"rates":2232,"##deut":2233,"stat":2234,"innerhalb":2235,"##ützen":2236,"lö":2237,"##bur":2238,"##gn":2239,"##line":2240,"##hnt":2241,"öffent":2242,"##zess":2243,"##met":2244,"europäische":2245,"##ix":2246,"gesellschaft":2247,"besteht":2248,"##itäten":2249,"zuge":2250,"kil":2251,"##ief":2252,"wenig":2253,"mutter":2254,"urspr":2255,"##frei":2256,"band":2257,"##ument":2258,"##40":2259,"entfern":2260,"##örper":2261,"kan":2262,"wirtschafts":2263,"2008":2264,"bru":2265,"berg":2266,"zul":2267,"wissenschaft":2268,"funktion":2269,"##reiben":2270,"phil":2271,"##nach":2272,"erg":2273,"sogar":2274,"##weis":2275,"früh":2276,"##ari":2277,"##tra":2278,"erhielt":2279,"##ute":2280,"##glichen":2281,"##reiche":2282,"schließlich":2283,"##schnitt":2284,"max":2285,"gilt":2286,"auto":2287,"johann":2288,"11.":2289,"alten":2290,"##indung":2291,"deshalb":2292,"invest":2293,"tour":2294,"heil":2295,"##komm":2296,"##leben":2297,"weiteren":2298,"herz":2299,"fußball":2300,"##teilt":2301,"gebr":2302,"werk":2303,"##ire":2304,"gast":2305,"4.":2306,"##gruppe":2307,"seien":2308,"empf":2309,"##li":2310,"geh":2311,"##völker":2312,"wien":2313,"aktiv":2314,"oh":2315,"früher":2316,"##4)":2317,"##weit":2318,"15.":2319,"lau":2320,"jahrhundert":2321,"seiten":2322,"danach":2323,"##spe":2324,"tri":2325,"##äus":2326,"verschiedenen":2327,"##ren":2328,"##äum":2329,"nacht":2330,"höhe":2331,"begann":2332,"##antwort":2333,"maßnahmen":2334,"url":2335,"##stre":2336,"verordnung":2337,"##etten":2338,"##&#":2339,"ost":2340,"##1)":2341,"verd":2342,"2017":2343,"fragen":2344,"##möglich":2345,"straße":2346,"unters":2347,"##vin":2348,"##.)":2349,"##gten":2350,"##dition":2351,"##zimmer":2352,"##scht":2353,"projekt":2354,"keinen":2355,"##woch":2356,"##nt":2357,"##liegen":2358,"##lungs":2359,"freitag":2360,"##90":2361,"##iti":2362,"frankreich":2363,"##schul":2364,"\".":2365,"##under":2366,"samstag":2367,"##eint":2368,"13.":2369,"##unkte":2370,"sonntag":2371,"##ässt":2372,"##publik":2373,"##onen":2374,"inte":2375,"energie":2376,"##ima":2377,"##steller":2378,"##sel":2379,"18.":2380,"veranst":2381,"dat":2382,"2005":2383,"##ipp":2384,"natürlich":2385,"##schein":2386,"##urm":2387,"##blick":2388,"vertrag":2389,"bestehen":2390,"beide":2391,"eng":2392,"bevor":2393,"(19":2394,"musste":2395,"histor":2396,"##folge":2397,"brit":2398,"wil":2399,"kor":2400,"gute":2401,"190":2402,"gesund":2403,"name":2404,"raum":2405,"kontro":2406,"schau":2407,"##ließen":2408,"##produ":2409,"##denten":2410,"##23":2411,"außen":2412,"##inde":2413,"##2)":2414,"##etter":2415,"##erne":2416,"##17":2417,"##wirk":2418,"ren":2419,"##stoff":2420,"##ump":2421,"gewesen":2422,"##hang":2423,"##wür":2424,"=":2425,"##tiger":2426,"beschäftig":2427,"##16":2428,"see":2429,"produktion":2430,"sieht":2431,"##ula":2432,"acht":2433,"gruppe":2434,"sor":2435,"zug":2436,"##port":2437,"##voll":2438,"##richten":2439,"stär":2440,"höch":2441,"##wär":2442,"bietet":2443,"pap":2444,"mel":2445,"aktue":2446,"27":2447,"stein":2448,"nehmen":2449,"##haupt":2450,"##schriften":2451,"##richtung":2452,"«":2453,"meter":2454,"##rigen":2455,"größer":2456,"##tragen":2457,")":2458,"##frie":2459,"rolle":2460,"##bh":2461,"stark":2462,"##zeitig":2463,"anwend":2464,"16.":2465,"##ital":2466,"typ":2467,"##inge":2468,"zusätz":2469,"kleine":2470,"liegen":2471,"tats":2472,"nahm":2473,"besitz":2474,"17.":2475,"deutlich":2476,"##uchen":2477,"##stu":2478,"bem":2479,"##ons":2480,"##arbeiten":2481,"##vi":2482,"##wagen":2483,"##enzen":2484,"##26":2485,"moder":2486,"##ana":2487,"##14":2488,"münchen":2489,">":2490,"jeden":2491,"geschäfts":2492,"##immt":2493,"pla":2494,"peter":2495,"##kom":2496,"##ied":2497,"wechsel":2498,"bedeut":2499,"thema":2500,"post":2501,"2000":2502,"ps":2503,"##erk":2504,"##gef":2505,"##öst":2506,"##tieren":2507,"##lieb":2508,"##sweise":2509,"##lang":2510,"##ometer":2511,"seines":2512,"##sb":2513,"heu":2514,"kleinen":2515,"minuten":2516,"sonst":2517,"##ai":2518,"findet":2519,"schutz":2520,"zeigt":2521,"volks":2522,"zusammenarbeit":2523,"hilfe":2524,"##pg":2525,"5.":2526,"##west":2527,"schri":2528,"##27":2529,"##euz":2530,"vergleich":2531,"##hi":2532,"##unt":2533,"zimmer":2534,"##“.":2535,"erk":2536,"##lex":2537,"städ":2538,"donner":2539,"landwirtschaft":2540,"##altungs":2541,"tage":2542,"ut":2543,"mr":2544,"##eier":2545,"##dingungen":2546,"tran":2547,"##utzen":2548,"##the":2549,"##por":2550,"bro":2551,"meisten":2552,"gegeben":2553,"stu":2554,"straßen":2555,"bad":2556,"verf":2557,"disk":2558,"tau":2559,"heißt":2560,"14.":2561,"gelegen":2562,"del":2563,"sowohl":2564,"##see":2565,"##liches":2566,"##reifen":2567,"##49":2568,"innen":2569,"internet":2570,"gegrün":2571,"##“,":2572,"##eitete":2573,"##atten":2574,"flü":2575,"erstmals":2576,"##maß":2577,"##13":2578,"##gesetz":2579,"##ymp":2580,"schm":2581,"stamm":2582,"##neten":2583,"lage":2584,"##achst":2585,"tod":2586,"(1)":2587,"kraft":2588,"##wiesen":2589,"ähn":2590,"2004":2591,"lok":2592,"##ummer":2593,"bevölker":2594,"unserer":2595,"tem":2596,"sieben":2597,"##ffer":2598,"äl":2599,"dad":2600,"##ämp":2601,"##ationale":2602,"##rech":2603,"##alten":2604,"1,":2605,"wider":2606,"26":2607,"paar":2608,"richtung":2609,"##buch":2610,"konnten":2611,"†":2612,"##els":2613,"##otor":2614,"hinaus":2615,"##kam":2616,"politik":2617,"##ächlich":2618,"meister":2619,"##fäh":2620,"verantwort":2621,"mitte":2622,"park":2623,"##of":2624,"##5)":2625,"würden":2626,"allein":2627,"vertr":2628,"start":2629,"##ählen":2630,"kunden":2631,"staaten":2632,"alb":2633,"##ark":2634,"wit":2635,"##ochter":2636,"führt":2637,"donnerstag":2638,"##ry":2639,"##führer":2640,"##anzen":2641,"##seite":2642,"eröff":2643,"kind":2644,"##ehmen":2645,"##llo":2646,"bleiben":2647,"##lei":2648,"fc":2649,"##halts":2650,"##sn":2651,"ke":2652,"dro":2653,"karl":2654,"­":2655,"##29":2656,"##sc":2657,"##fahrt":2658,"amt":2659,"##igte":2660,"##fehl":2661,"morgen":2662,"##geber":2663,"mart":2664,"##do":2665,"##istischen":2666,"##28":2667,"##1,":2668,"gebiet":2669,"##zip":2670,"##üler":2671,"minister":2672,"schle":2673,"##ücke":2674,"##plan":2675,"2016,":2676,"voraus":2677,"gm":2678,"ehe":2679,"##amt":2680,"tradition":2681,"far":2682,"##oph":2683,"dun":2684,"gewann":2685,"wettbewer":2686,"##6)":2687,"##igkeiten":2688,"jem":2689,"29":2690,"##liga":2691,"bereit":2692,"##weiter":2693,"##hungen":2694,"damals":2695,"grie":2696,"##nu":2697,"##wand":2698,"jahrhunder":2699,"##spru":2700,"woche":2701,"##wig":2702,"sil":2703,"häuf":2704,"halb":2705,"##burger":2706,"fand":2707,"##ath":2708,"wald":2709,"##ammen":2710,"schloss":2711,"wind":2712,"steuer":2713,"##rägt":2714,"60":2715,"niederl":2716,"##wegen":2717,"##rän":2718,"deutsch":2719,"mannschaft":2720,"dorf":2721,"beruf":2722,"versch":2723,"persön":2724,"folgenden":2725,"##ight":2726,"##bür":2727,"stunden":2728,"##70":2729,"6.":2730,"##bi":2731,"##kan":2732,"länder":2733,"red":2734,"folge":2735,"blick":2736,"dom":2737,"##vol":2738,"spezi":2739,"##ene":2740,"##ändert":2741,"##staat":2742,"##alität":2743,"##ieten":2744,"##ael":2745,"app":2746,"##ws":2747,"glück":2748,"mensch":2749,"##hc":2750,"lässt":2751,"absol":2752,"bedeutung":2753,"##89":2754,"##lichkeit":2755,"männer":2756,"ass":2757,"gebäude":2758,"##iken":2759,"##urop":2760,"##hausen":2761,"augen":2762,"##med":2763,"##2,":2764,"##gi":2765,"##fiz":2766,"##agement":2767,"che":2768,"struktur":2769,"inn":2770,"vergangenen":2771,"zukunft":2772,"hervor":2773,"erhe":2774,"##arch":2775,"##krä":2776,"##jährigen":2777,"##hard":2778,"minde":2779,"zeich":2780,"##wasser":2781,"auft":2782,"gä":2783,"9.":2784,"stimm":2785,"##agen":2786,"danke":2787,"rö":2788,"##wissen":2789,"##utzt":2790,"pe":2791,"profess":2792,"##urs":2793,"mitglieder":2794,"no":2795,"##gra":2796,"##ativen":2797,"##uf":2798,"##itär":2799,"##schinen":2800,"##mitt":2801,"##kmal":2802,"##schlä":2803,"##nahm":2804,"stellt":2805,"30.":2806,"##zü":2807,"##samm":2808,"q":2809,"interess":2810,"dopp":2811,"sin":2812,"by":2813,"##weisen":2814,"##bil":2815,"anzahl":2816,"sicherheit":2817,"##dn":2818,"##go":2819,"##reicht":2820,"##techn":2821,"##iser":2822,"wein":2823,"internationalen":2824,"sprach":2825,"##aly":2826,"winter":2827,"##87":2828,"gesagt":2829,"nächsten":2830,"letzte":2831,"wobei":2832,"mode":2833,"liebe":2834,"leicht":2835,"(3":2836,"##schrift":2837,"darf":2838,"##reter":2839,"international":2840,"##bte":2841,"##iges":2842,"künstler":2843,"##gor":2844,"##va":2845,"ländern":2846,"##bu":2847,"##riff":2848,"zweite":2849,"offiz":2850,"##rt":2851,"##struktur":2852,"fertig":2853,"erreich":2854,"##itter":2855,"##ösung":2856,"af":2857,"pal":2858,"##baren":2859,"21.":2860,"posted":2861,"may":2862,"ni":2863,"körper":2864,"bringen":2865,"09":2866,"rot":2867,"##les":2868,"(0":2869,"verschiedene":2870,"erhö":2871,"bestand":2872,"##isse":2873,"einsch":2874,"dok":2875,"##/17":2876,"7.":2877,"notwend":2878,"netz":2879,"mat":2880,"web":2881,"lern":2882,"kal":2883,"irgend":2884,"bericht":2885,"tochter":2886,"tö":2887,"##deten":2888,"schrift":2889,"mittler":2890,"##ikanischen":2891,"##ware":2892,"05":2893,"verz":2894,"##okrat":2895,"zuvor":2896,"##ork":2897,"spielte":2898,"##utet":2899,"erf":2900,"##recher":2901,"deutscher":2902,"##ließend":2903,"lag":2904,"##/9":2905,"jeweils":2906,"stim":2907,"1990":2908,"gefunden":2909,"##85":2910,"verwendet":2911,"führte":2912,"##fre":2913,"##änden":2914,"##geln":2915,"mitarbeiter":2916,"##bin":2917,"##drich":2918,"189":2919,"erinner":2920,"verfügung":2921,"##mitglie":2922,"eltern":2923,"##ppe":2924,"john":2925,"##ions":2926,"22.":2927,"junge":2928,"##fach":2929,"bank":2930,"04":2931,"##hnen":2932,"ursprün":2933,"bra":2934,"anw":2935,"##res":2936,"höher":2937,"##politik":2938,"##tischen":2939,"nahe":2940,"##test":2941,"##jekte":2942,"spieler":2943,"hohen":2944,"druck":2945,"##apan":2946,"halten":2947,"##vice":2948,"liste":2949,"deine":2950,"partner":2951,"kna":2952,"ganze":2953,"richtlinie":2954,"##vier":2955,"ac":2956,"##staur":2957,"bezeichnet":2958,"##ächen":2959,"general":2960,"##takt":2961,"##bare":2962,"mor":2963,"abend":2964,"07":2965,"hein":2966,"##omat":2967,"##/16":2968,"ster":2969,"schwier":2970,"##ständig":2971,"##standen":2972,"boden":2973,"mom":2974,"##gu":2975,"unterstützung":2976,"000":2977,"leute":2978,"holz":2979,"tel":2980,"##ama":2981,"freu":2982,"##itionen":2983,"8.":2984,"verbesser":2985,"mu":2986,"kompl":2987,"tut":2988,"##to":2989,"samm":2990,"schule":2991,"muse":2992,"meer":2993,"erschien":2994,"bus":2995,"mittwoch":2996,"##own":2997,"muß":2998,"##tin":2999,"##ikation":3000,"hätten":3001,"sl":3002,"##leistungen":3003,"ten":3004,"##uld":3005,"##pen":3006,"bürgermeister":3007,"fal":3008,"kirchen":3009,"##llig":3010,"bleibt":3011,"##jpg":3012,"##ätzen":3013,"besten":3014,"##ücken":3015,"25.":3016,"##abhäng":3017,"##eta":3018,"##zeichnet":3019,"##ino":3020,"köl":3021,"##ikt":3022,"##ement":3023,"kilometer":3024,"michael":3025,"führen":3026,"##urr":3027,"brei":3028,"eis":3029,"##oper":3030,"neuer":3031,"erwä":3032,"einigen":3033,"##45":3034,"äu":3035,"##ängen":3036,"##izin":3037,"00":3038,"daran":3039,"##schuss":3040,"treffen":3041,"lux":3042,"gek":3043,"cm":3044,"ebenso":3045,"mi":3046,"verfahren":3047,"vide":3048,"##dat":3049,"##gien":3050,"bern":3051,"31.":3052,"nähe":3053,"zer":3054,"##vie":3055,"verpf":3056,"##fra":3057,"##itze":3058,"##zeuge":3059,"thom":3060,"krieg":3061,"08":3062,"##abel":3063,"bre":3064,"telefon":3065,"##iver":3066,"##get":3067,"vorsitzen":3068,"genannt":3069,"online":3070,"##äuft":3071,"##ese":3072,"tier":3073,"integr":3074,"##rid":3075,"##kar":3076,"##ong":3077,"##3,":3078,"##chter":3079,"•":3080,"##üd":3081,"prin":3082,"##ych":3083,"folgende":3084,"weltkrie":3085,"bayern":3086,"##11":3087,"jün":3088,"wesent":3089,"##abil":3090,"kranken":3091,"##herr":3092,"##ole":3093,"eisen":3094,"##86":3095,"kopf":3096,"untersuch":3097,"wort":3098,"##äte":3099,"schüler":3100,"##2-":3101,"##ish":3102,"##preis":3103,"##yer":3104,"##irk":3105,"gesehen":3106,"##statt":3107,"ew":3108,"chem":3109,"80":3110,"erfahr":3111,"##ferenz":3112,"weiterhin":3113,"##lauf":3114,"fra":3115,"gewähr":3116,"##atte":3117,"##arf":3118,"stelle":3119,"##laden":3120,"sicht":3121,"jahrhunderts":3122,"##hafen":3123,"06":3124,"japan":3125,"##nissen":3126,"könnten":3127,"##fluss":3128,"##hilfe":3129,"##wur":3130,"##ica":3131,"friedrich":3132,"##tens":3133,"##nei":3134,"erneut":3135,"##fun":3136,"##führen":3137,"kolle":3138,"verkauf":3139,"derzeit":3140,"##ms":3141,"amts":3142,"angaben":3143,"hotels":3144,"##by":3145,"##gebr":3146,"bot":3147,"##stieg":3148,"##zep":3149,"##artet":3150,"##7)":3151,"##ju":3152,"##ane":3153,"28":3154,"montag":3155,"militär":3156,"##vis":3157,"##verband":3158,"erreichen":3159,"schö":3160,"handelt":3161,"##76":3162,"ang":3163,"eigentlich":3164,"28.":3165,"burg":3166,"obwohl":3167,"##üsse":3168,"##sprochen":3169,"got":3170,"##/-":3171,"##schaffen":3172,"gehören":3173,"##uchs":3174,"bal":3175,"24.":3176,"probleme":3177,"ihres":3178,"weise":3179,"##furt":3180,"##ädchen":3181,"solche":3182,"##itut":3183,"türk":3184,"##griff":3185,"##mäßig":3186,"tat":3187,"!":3188,"##.000":3189,"guten":3190,"##8)":3191,"##zz":3192,"bald":3193,"erklärt":3194,"##ches":3195,"konst":3196,"35":3197,"jungen":3198,"##ört":3199,"qualität":3200,"trat":3201,"##ituation":3202,"möglichkeit":3203,"einwohner":3204,"deb":3205,"erster":3206,"mater":3207,"##üst":3208,"eigene":3209,"##press":3210,"##handlung":3211,"23.":3212,"you":3213,"kaum":3214,"##rug":3215,"begr":3216,"geboren":3217,"01":3218,"restaur":3219,"##sd":3220,"jede":3221,"ep":3222,"##istr":3223,"trans":3224,"meist":3225,"##.,":3226,"##för":3227,"anschließend":3228,"##php":3229,"##alog":3230,"##bn":3231,"ließ":3232,"gehörte":3233,"ku":3234,"doppel":3235,"pfl":3236,"##off":3237,"##ae":3238,"##eien":3239,"##kn":3240,"##teten":3241,"beispielsweise":3242,"##zept":3243,"##verfahren":3244,"neun":3245,"##endung":3246,"##+1":3247,"leich":3248,"oper":3249,"zahlreiche":3250,"tages":3251,"schla":3252,"entde":3253,"##enze":3254,"alex":3255,"helfen":3256,"29.":3257,"dadurch":3258,"super":3259,"einzelnen":3260,"paul":3261,"blieb":3262,"qualif":3263,"erweiter":3264,"schiff":3265,"utc":3266,"##iten":3267,"##berger":3268,"entfernt":3269,"bevölkerung":3270,"##abr":3271,"]":3272,"##akter":3273,"zeigen":3274,"essen":3275,"##räger":3276,"##html":3277,"anders":3278,"reihe":3279,"richtig":3280,"liter":3281,"verr":3282,"##bank":3283,"2003":3284,"emp":3285,"server":3286,"verste":3287,"##reffen":3288,"mach":3289,"̈":3290,"meinen":3291,"ausbildung":3292,"##handlungen":3293,"ergebnisse":3294,"##ski":3295,";":3296,"##setzen":3297,"##stät":3298,"##stellungen":3299,"gleichzeitig":3300,"##han":3301,"##35":3302,"##reibt":3303,"errich":3304,"mm":3305,"kauf":3306,"erforder":3307,"vereinigten":3308,"ü":3309,"zuletzt":3310,"olymp":3311,"heimat":3312,"##ham":3313,"tot":3314,"hinzu":3315,"##oster":3316,"alte":3317,"##-,":3318,"rhein":3319,"##inst":3320,"verkehrs":3321,"27.":3322,"##haltung":3323,"medien":3324,"hor":3325,"anti":3326,"03":3327,"##gesellschaft":3328,"vö":3329,"dienstag":3330,"liefer":3331,"verwaltungs":3332,"##eiger":3333,"normal":3334,"parlaments":3335,"tex":3336,"##einen":3337,"somit":3338,"erreicht":3339,"##ec":3340,"##pol":3341,"jedes":3342,"geist":3343,"##sei":3344,"forschung":3345,"##zus":3346,"##fläche":3347,"übern":3348,"oben":3349,"##ling":3350,"bon":3351,"##4,":3352,"##zentrum":3353,"häufig":3354,"york":3355,"##richtungen":3356,"bö":3357,"##tierte":3358,"ernst":3359,"##spiele":3360,"eher":3361,"##angel":3362,"##schau":3363,"dauer":3364,"##kirche":3365,"##vel":3366,"##ius":3367,"##zig":3368,"hans":3369,"##kor":3370,"##edig":3371,"##ars":3372,"bekommen":3373,"##ara":3374,"##usst":3375,"paris":3376,"##ondon":3377,"##sv":3378,"90":3379,"thomas":3380,"berufs":3381,"##75":3382,"##stimmung":3383,"öffentlichen":3384,"##istische":3385,"##fahrer":3386,"##ehm":3387,"##sichtlich":3388,"gruppen":3389,"##ftung":3390,"kamen":3391,"begl":3392,"are":3393,"geworden":3394,"##kret":3395,"26.":3396,"spiele":3397,"##programm":3398,"regen":3399,"landkreis":3400,"privat":3401,"##nr":3402,"öffentlich":3403,"##zwischen":3404,"kreuz":3405,"hof":3406,"##daten":3407,"andre":3408,"ach":3409,"##gebung":3410,"##iko":3411,"schei":3412,"##hu":3413,"darunter":3414,"##geführt":3415,"##alisiert":3416,"70":3417,"##anlage":3418,"machte":3419,"anzu":3420,"##üter":3421,"##lieben":3422,"##12":3423,"##tionen":3424,"versuch":3425,"##how":3426,"prakti":3427,"##lad":3428,"##ierungen":3429,"sogen":3430,"klass":3431,"entscheiden":3432,"zerst":3433,"##öhn":3434,"##jf":3435,"verbunden":3436,"##schrei":3437,"vorschlag":3438,"##verw":3439,"##ink":3440,"gegründet":3441,"##sich":3442,"mädchen":3443,"imm":3444,"##orben":3445,"1999":3446,"##6,":3447,"##zeugen":3448,"##wind":3449,"foto":3450,"kampf":3451,"##ele":3452,"jose":3453,"beob":3454,"offizie":3455,"erle":3456,"hey":3457,"trainer":3458,"kennen":3459,"##arm":3460,"2001":3461,"republik":3462,"##kraft":3463,"##43":3464,"tabe":3465,"ehren":3466,"stellung":3467,"##asen":3468,"unabhäng":3469,"##tic":3470,"sofort":3471,"dritten":3472,"##äuser":3473,"##5,":3474,"##gebaut":3475,"##arbeitet":3476,"##auber":3477,"2002":3478,"erfolgreich":3479,"glauben":3480,"found":3481,"reise":3482,"miss":3483,"##liefer":3484,"london":3485,"vi":3486,"martin":3487,"##ets":3488,"formula":3489,"äußer":3490,"##79":3491,"gmbh":3492,"anwendung":3493,"train":3494,"##film":3495,"eigent":3496,"°":3497,"eingesetzt":3498,"gefähr":3499,"laufen":3500,"schweiz":3501,"##durch":3502,"##achtet":3503,"konz":3504,"##schung":3505,"verteid":3506,"##ategor":3507,"gleichen":3508,"##istik":3509,"##ritten":3510,"meiner":3511,"##seh":3512,"stellte":3513,"archite":3514,"##iar":3515,"ther":3516,"herrn":3517,"##ograf":3518,"##12.":3519,"##mark":3520,"prom":3521,"##mu":3522,"##othe":3523,"bele":3524,"##hörden":3525,"##örd":3526,"bruder":3527,"arbeitete":3528,"kre":3529,"##andid":3530,"##cr":3531,"##keits":3532,"ris":3533,"baum":3534,"##ents":3535,"mio":3536,"veränder":3537,"##ausch":3538,"okay":3539,"##83":3540,"##iegel":3541,"größten":3542,"2,":3543,"##merk":3544,"spd":3545,"gold":3546,"##iete":3547,"##anw":3548,"akti":3549,"##vertrag":3550,"##cy":3551,"##sidenten":3552,"##immen":3553,"betro":3554,"##allen":3555,"ausl":3556,"##unternehmen":3557,"untersch":3558,"jähr":3559,"brand":3560,"##ängt":3561,"motor":3562,"zusammenhang":3563,"##vid":3564,"##amar":3565,"raus":3566,"spezie":3567,"##altet":3568,"veröffentlicht":3569,"kol":3570,"anteil":3571,"unseren":3572,"##wegung":3573,"insel":3574,"königreich":3575,"zahlen":3576,"##nungen":3577,"spanien":3578,"hu":3579,"licht":3580,"hamburg":3581,"zwe":3582,"##icken":3583,"tu":3584,"##\"-":3585,"nörd":3586,"##üfung":3587,"##amen":3588,"##urrent":3589,"öff":3590,"sim":3591,"##sg":3592,"initi":3593,"gewählt":3594,"gemeinsamen":3595,"gerichts":3596,"##anger":3597,"darin":3598,"##wertung":3599,"knapp":3600,"tal":3601,"##indust":3602,"provin":3603,"##reisen":3604,"##organis":3605,"vorh":3606,"##win":3607,"unver":3608,"politischen":3609,"##alisierung":3610,"gelten":3611,"links":3612,"##gangs":3613,"produkte":3614,"norden":3615,"finanzie":3616,"einzige":3617,"entwickelt":3618,"##ame":3619,"ton":3620,"##ada":3621,"sieg":3622,"##das":3623,"grenz":3624,"##fan":3625,"rech":3626,"0,":3627,"aust":3628,"##sent":3629,"##gest":3630,"##haben":3631,"1980":3632,"##halte":3633,"##cc":3634,"##ors":3635,"##ake":3636,"hause":3637,"ergebnis":3638,"befinden":3639,"##dens":3640,"##mand":3641,"wunder":3642,"##pd":3643,"jur":3644,"(2)":3645,"##ash":3646,"##tische":3647,"##haft":3648,"air":3649,"##wald":3650,"punkt":3651,"erfü":3652,"isra":3653,"##ile":3654,"gäste":3655,"##ted":3656,"ul":3657,"hohe":3658,"mindestens":3659,"##folger":3660,"##peratur":3661,"##tigkeit":3662,"auszu":3663,"verloren":3664,"wh":3665,"sand":3666,"##za":3667,"##bü":3668,"##cn":3669,"theater":3670,"lud":3671,"exper":3672,"spielt":3673,"##lege":3674,"ans":3675,"##spruch":3676,"##frist":3677,"##schafts":3678,"##7,":3679,"##ution":3680,"bedeutet":3681,"nutzen":3682,"neues":3683,"##gliche":3684,"einger":3685,"gö":3686,"##bringen":3687,"##wn":3688,"##spolitik":3689,"##hoben":3690,"gepl":3691,"##ziehen":3692,"##len":3693,"vorber":3694,"##umm":3695,"feuerwehr":3696,"zeu":3697,"##ona":3698,"lauf":3699,"bieten":3700,"186":3701,"##:30":3702,"cor":3703,"institu":3704,"02":3705,"##räch":3706,"##sammlung":3707,"aufgenommen":3708,"##ufen":3709,"länger":3710,"##fallen":3711,"current":3712,"wal":3713,"##elte":3714,"##eilen":3715,"posit":3716,"##band":3717,"##isierung":3718,"##ike":3719,"##kap":3720,"##39":3721,"absatz":3722,"##iven":3723,"##arbeitung":3724,"schie":3725,"betroffen":3726,"stück":3727,"##bruch":3728,"eins":3729,"##hs":3730,"my":3731,"##illa":3732,"ganzen":3733,"bedeuten":3734,"siehe":3735,"##bie":3736,"##ennung":3737,"vis":3738,"medizin":3739,"besucher":3740,"les":3741,"##gern":3742,"verbindung":3743,"ecu":3744,"##unsch":3745,"##eng":3746,"##iums":3747,"glaube":3748,"gemäß":3749,"mass":3750,"##uk":3751,"entstanden":3752,"##puter":3753,"aktu":3754,"sonder":3755,"studierte":3756,"sach":3757,"haup":3758,"##amme":3759,"roman":3760,"dän":3761,"jung":3762,"ball":3763,"hann":3764,"##meter":3765,"vorher":3766,"##cks":3767,"##ated":3768,"##präsident":3769,"auftrag":3770,"dig":3771,"##tiv":3772,"volk":3773,"##eis":3774,"##kosten":3775,"##mitteln":3776,"##zehn":3777,"gekommen":3778,"##bro":3779,"##84":3780,"##zeiten":3781,"##ograph":3782,"##sitz":3783,"defin":3784,"sym":3785,"sek":3786,"handels":3787,"##tisch":3788,"##park":3789,"gebracht":3790,"##ürz":3791,"jen":3792,"##industrie":3793,"nimmt":3794,"##ala":3795,"##nehm":3796,"##legung":3797,"##will":3798,"pfarr":3799,"ehemaligen":3800,"zoll":3801,"fischer":3802,"spa":3803,"feld":3804,"themen":3805,"gerne":3806,"##sph":3807,"currently":3808,"##est":3809,"##älfte":3810,"dagegen":3811,"belie":3812,"##gress":3813,"reque":3814,"situation":3815,"##helm":3816,"##frage":3817,"rie":3818,"vorhanden":3819,"##aucher":3820,"kaiser":3821,"gefü":3822,"##entwick":3823,"fahren":3824,"psych":3825,"##out":3826,"getr":3827,"##fter":3828,"main":3829,"kons":3830,"1998":3831,"##kräfte":3832,"##gemeinschaft":3833,"tagen":3834,"##isiert":3835,"sex":3836,"köln":3837,"tä":3838,"schaffen":3839,"##itt":3840,"älter":3841,"willst":3842,"##omen":3843,"##ev":3844,"tv":3845,"gestellt":3846,"id":3847,"präsen":3848,"indem":3849,"verletz":3850,"wol":3851,"einzu":3852,"nachbar":3853,"##betrieb":3854,"maxim":3855,"monate":3856,"##stud":3857,"mobil":3858,"ziff":3859,"##34":3860,"##eth":3861,"weihn":3862,"sprache":3863,"publik":3864,"##ils":3865,"##ftware":3866,"##sprach":3867,"hum":3868,"##tent":3869,"##grö":3870,"gottes":3871,"portug":3872,"aktion":3873,"krank":3874,"##eben":3875,"##geschichte":3876,"##2/":3877,"hält":3878,"##ollar":3879,"##mehr":3880,"times":3881,"##rimin":3882,"verhält":3883,"arme":3884,"verschw":3885,"wolf":3886,"##har":3887,"großer":3888,"salz":3889,"wün":3890,"firma":3891,"moment":3892,"stutt":3893,"leiter":3894,"leid":3895,"sinn":3896,"russland":3897,"##nie":3898,"position":3899,"pop":3900,"georg":3901,"sprechen":3902,"zwöl":3903,"dürfen":3904,"39":3905,"log":3906,"##zeigt":3907,"##werke":3908,"##hlt":3909,"bor":3910,"van":3911,"##gemeinde":3912,"frankfurt":3913,"##mt":3914,"##akte":3915,"kannst":3916,"##tigung":3917,"forschungs":3918,"erfolgte":3919,"##ivi":3920,"##af":3921,"männ":3922,"französischen":3923,"##lingen":3924,"hallo":3925,"teilweise":3926,"stahl":3927,"bilder":3928,"##ward":3929,"##hy":3930,"##lan":3931,"nationalen":3932,"##setzt":3933,"standard":3934,"zentrum":3935,"##kauf":3936,"##altungen":3937,"requested":3938,"bezug":3939,"lü":3940,"osten":3941,"top":3942,"1994":3943,"verfol":3944,"test":3945,"##stände":3946,"##day":3947,"internationale":3948,"##aktion":3949,"ker":3950,"##flug":3951,"rechte":3952,"bildung":3953,"##linien":3954,"##77":3955,"tatsächlich":3956,"##1/":3957,"##gessen":3958,"##zeichen":3959,"orts":3960,"os":3961,"repl":3962,"süden":3963,"tragen":3964,"produkt":3965,"col":3966,"1995":3967,"kern":3968,"1996":3969,"##ordin":3970,"kennt":3971,"gelang":3972,"##ton":3973,"##88":3974,"punkte":3975,"rum":3976,"##gehend":3977,"mad":3978,"jemand":3979,"verfüg":3980,"##osition":3981,"##losen":3982,"##spart":3983,"1992":3984,"chr":3985,"mehreren":3986,"##ines":3987,"##rop":3988,"schwarz":3989,"demokrat":3990,"##riere":3991,"bur":3992,"##forderungen":3993,"##ku":3994,"ie":3995,"gre":3996,"##ley":3997,"unternehmens":3998,"überra":3999,"terr":4000,"ledig":4001,"##ritte":4002,"gericht":4003,"garten":4004,"arm":4005,"jedem":4006,"berück":4007,"tie":4008,"inzwischen":4009,"schweizer":4010,"##cen":4011,"##ante":4012,"lesen":4013,"##maßnahmen":4014,"wahrschein":4015,"##wurf":4016,"##schluß":4017,"heutigen":4018,"##ost":4019,"christian":4020,"##uni":4021,"hen":4022,"gebe":4023,"günst":4024,"syn":4025,"cal":4026,"##fi":4027,"schu":4028,"##gro":4029,"##gart":4030,"umfang":4031,"##lu":4032,"##ischof":4033,"kontakt":4034,"fu":4035,"genommen":4036,"##icherung":4037,"studien":4038,"entstand":4039,"dei":4040,"dennoch":4041,"##inal":4042,"hören":4043,"##schine":4044,"1997":4045,"##räum":4046,"##36":4047,"zog":4048,"kriegs":4049,"lediglich":4050,"##derte":4051,"restaurant":4052,"dor":4053,"metho":4054,"sicherheits":4055,"##hnung":4056,"##gericht":4057,"gesamten":4058,"ga":4059,"darum":4060,"##hte":4061,"sozialen":4062,"erreichte":4063,"politische":4064,"can":4065,"selten":4066,"kloster":4067,"##halle":4068,"##abend":4069,"innov":4070,"text":4071,"unterstützt":4072,"##ames":4073,"fein":4074,"##ückt":4075,"sah":4076,"comm":4077,"mos":4078,"##tur":4079,"500":4080,"sv":4081,"rest":4082,"china":4083,"geändert":4084,"1993":4085,"##ns":4086,"israel":4087,"verwaltung":4088,"eid":4089,"strate":4090,"verlassen":4091,"monaten":4092,"##bus":4093,"##nas":4094,"blut":4095,"sorgen":4096,"reply":4097,"##bten":4098,"video":4099,"anerk":4100,"graf":4101,"1970":4102,"vorgesehen":4103,"flughafen":4104,"##11.":4105,"übrigen":4106,"hart":4107,"deta":4108,"brie":4109,"##musik":4110,"##sprache":4111,"##flü":4112,"##10.":4113,"##ld":4114,"##ki":4115,"erklärte":4116,"ferien":4117,"haushalts":4118,"verhin":4119,"##mannschaft":4120,"übernahm":4121,"autor":4122,"reden":4123,"schritt":4124,"##lose":4125,"##ienten":4126,"att":4127,"westen":4128,"wichtige":4129,"##klasse":4130,"konzentr":4131,"##anne":4132,"geschlossen":4133,"##zy":4134,"erhält":4135,"len":4136,"künf":4137,"ergän":4138,"##barkeit":4139,"angebot":4140,"erheb":4141,"strom":4142,"schlag":4143,"nachrichten":4144,"##acher":4145,"abkommen":4146,"##schläge":4147,"##orge":4148,"opti":4149,"##ließt":4150,"krä":4151,"##auern":4152,"genug":4153,"##hre":4154,"tief":4155,"bein":4156,"dach":4157,"wohnung":4158,"fiel":4159,"##name":4160,"##ias":4161,"fei":4162,"##lassen":4163,"hälfte":4164,"hy":4165,"##9)":4166,"##mittag":4167,"vorbei":4168,"##cel":4169,"einheit":4170,"##nn":4171,"computer":4172,"##prü":4173,"sat":4174,"##ola":4175,"teile":4176,"anges":4177,"##site":4178,"##uth":4179,"\",":4180,"erziel":4181,"monat":4182,"zeitpunkt":4183,"31":4184,"##til":4185,"anl":4186,"weißt":4187,"##wi":4188,"enthalten":4189,"basis":4190,"verstär":4191,"turn":4192,"wenige":4193,"##gruppen":4194,"interesse":4195,"überhaupt":4196,"##dy":4197,"starb":4198,"genutzt":4199,"##ita":4200,"45":4201,"förderung":4202,"##asste":4203,"bewer":4204,"##pel":4205,"##osten":4206,"##ziert":4207,"##jen":4208,"##umente":4209,"unmittel":4210,"instr":4211,"185":4212,"##jet":4213,"##orgung":4214,"##netz":4215,"maria":4216,"##ausschuss":4217,"(4":4218,"##seiten":4219,"pun":4220,"sir":4221,"##spielt":4222,"##erv":4223,"berliner":4224,"##kung":4225,"frem":4226,"bezahl":4227,"##ungsbe":4228,"tar":4229,"beein":4230,"##gebracht":4231,"bill":4232,"arten":4233,"36":4234,"180":4235,"teilnehmer":4236,"just":4237,"vertreter":4238,"##ürf":4239,"##gelegt":4240,"prem":4241,"##\":":4242,"passiert":4243,"##amerikan":4244,"regionen":4245,"größte":4246,"gemeinsame":4247,"##8/":4248,"album":4249,"##pers":4250,"##erweise":4251,"leu":4252,"berich":4253,"version":4254,"fen":4255,"brauchen":4256,"setzt":4257,"##pfung":4258,"##finden":4259,"dire":4260,"kant":4261,"ludwig":4262,"##iam":4263,"fried":4264,"##xis":4265,"setzte":4266,"ruhe":4267,"kindern":4268,"zwölf":4269,"bull":4270,"##ico":4271,"##urnal":4272,"##9,":4273,"##gner":4274,"sache":4275,"##riebe":4276,"hoff":4277,"unfall":4278,"##wesen":4279,"##ago":4280,"##mü":4281,"könne":4282,"bege":4283,"ebene":4284,"zentral":4285,"setzen":4286,"##view":4287,"allgemeinen":4288,"himm":4289,"kla":4290,"mess":4291,"##zial":4292,"maschinen":4293,"wechselte":4294,"##spricht":4295,"linie":4296,"##aust":4297,"wagen":4298,"inkl":4299,"##wegs":4300,"##team":4301,"prozess":4302,"ursprünglich":4303,"langen":4304,"##pla":4305,"##gefähr":4306,"##igr":4307,"##ktoren":4308,"relig":4309,"##teile":4310,"##gramme":4311,"##kennen":4312,"##fälle":4313,"kathol":4314,"erzeug":4315,"##cs":4316,"bab":4317,"##stands":4318,"##lern":4319,"##äufer":4320,"sub":4321,"pil":4322,"##gut":4323,"gesamte":4324,"überw":4325,"##ause":4326,"##ni":4327,"enthält":4328,"anderer":4329,"##zustellen":4330,"##bez":4331,"aufgabe":4332,"kategor":4333,"gemeinschafts":4334,"ordnung":4335,"benö":4336,"##ämlich":4337,"klima":4338,"university":4339,"milliar":4340,"##regierung":4341,"bayer":4342,"##chan":4343,"##macht":4344,"glas":4345,"grundlage":4346,"hü":4347,"kämp":4348,"lager":4349,"folgender":4350,"analy":4351,"robert":4352,"##äne":4353,"##handelt":4354,"prot":4355,"time":4356,"errichtet":4357,"provinz":4358,"##wissenschaft":4359,"meinem":4360,"opfer":4361,"1991":4362,"personal":4363,"##trem":4364,"evangel":4365,"angst":4366,"erb":4367,"mw":4368,"##ividu":4369,"##ragt":4370,"##33":4371,"austr":4372,"##eisch":4373,"verwendung":4374,"lehrer":4375,"gesundheits":4376,"leip":4377,"information":4378,"schaff":4379,"##teilen":4380,"erwer":4381,"keiner":4382,"charakter":4383,"##kat":4384,"##iens":4385,"##stellten":4386,"##fn":4387,"fehler":4388,"geeig":4389,"##ague":4390,"german":4391,"verlie":4392,"ständ":4393,"##wirkungen":4394,"heinrich":4395,"zusätzlich":4396,"wachst":4397,"##bürger":4398,"##bildungs":4399,"erlau":4400,"begriff":4401,"modell":4402,"##ologischen":4403,"##46":4404,"hig":4405,"öst":4406,"idee":4407,"trump":4408,"##anlagen":4409,"bestimmt":4410,"suchen":4411,"##sende":4412,"museum":4413,"##dessen":4414,"eint":4415,"kehr":4416,"nämlich":4417,"stil":4418,"leg":4419,"versucht":4420,"##iden":4421,"haupts":4422,"##82":4423,"abzu":4424,"##rang":4425,"weltweit":4426,"professor":4427,"##bad":4428,"##tu":4429,"##ierenden":4430,"##over":4431,"bringt":4432,"##ival":4433,"##tor":4434,"durchgeführt":4435,"##rechte":4436,"angel":4437,"bestimmten":4438,"umfassen":4439,"absolv":4440,"1945":4441,"schluss":4442,"##steuer":4443,"##ize":4444,"gewalt":4445,"welches":4446,"wilhelm":4447,"flücht":4448,"tur":4449,"schauspieler":4450,"##wechsel":4451,"scheint":4452,"##leiter":4453,"gesundheit":4454,"spricht":4455,"sem":4456,"schr":4457,"serie":4458,"bestimmte":4459,"individu":4460,"manch":4461,"##ary":4462,"##ierter":4463,"##igur":4464,"##frieden":4465,"besondere":4466,"##etzen":4467,"bedingungen":4468,"city":4469,"bahnhof":4470,"quelle":4471,"##mi":4472,"##ieß":4473,"gere":4474,"stuttgart":4475,"1989":4476,"lösung":4477,"karriere":4478,"##äger":4479,"entgegen":4480,"##atik":4481,"david":4482,"verbind":4483,"fluss":4484,"presse":4485,"##mail":4486,"##ständigen":4487,"edi":4488,"förder":4489,"##stoffe":4490,"schrieb":4491,"wetter":4492,"##stellte":4493,"##linge":4494,"##zun":4495,"bilden":4496,"##kampf":4497,"##schiff":4498,"{":4499,"rang":4500,"abschluss":4501,"betriebs":4502,"organisation":4503,"##kw":4504,"stimmen":4505,"lat":4506,"pet":4507,"##igungs":4508,"sto":4509,"gemeinden":4510,"##hor":4511,"##spar":4512,"ausschuss":4513,"cdu":4514,"geführt":4515,"real":4516,"from":4517,"tsche":4518,"##78":4519,"##neu":4520,"##tert":4521,"##atoren":4522,"einst":4523,"##garten":4524,"##/07":4525,"jes":4526,"##spielen":4527,"zunehmen":4528,"##frika":4529,"300":4530,"##tik":4531,"##bol":4532,"spann":4533,"aufgaben":4534,"leit":4535,"##fj":4536,"schn":4537,"preise":4538,"##.:":4539,"##steil":4540,"ww":4541,"33":4542,"abgeord":4543,"##fordert":4544,"##polit":4545,"##spann":4546,"##fassung":4547,"##serv":4548,"##ble":4549,"##schr":4550,"##74":4551,"##ano":4552,"niemand":4553,"##km":4554,"(5":4555,"stellvert":4556,"arbeitspl":4557,"##zul":4558,"##länder":4559,"rede":4560,"glob":4561,"##bli":4562,"##fb":4563,"##tiges":4564,"genehm":4565,"##assungs":4566,"ermöglich":4567,"##nes":4568,"berech":4569,"##oto":4570,"now":4571,"zweit":4572,"##tive":4573,"##gere":4574,"##ows":4575,"##raten":4576,"beginnt":4577,"##formen":4578,"begrün":4579,"camp":4580,"zeitung":4581,"behörden":4582,"benutz":4583,"damal":4584,"dur":4585,"literatur":4586,"absch":4587,"##iegen":4588,"##eh":4589,"bildungs":4590,"home":4591,"nö":4592,"erzählt":4593,"vir":4594,"##/200":4595,"wär":4596,"kg":4597,"sonnen":4598,"verhandlungen":4599,"institut":4600,"erfahren":4601,"##nd":4602,"##omo":4603,"dahin":4604,"##vention":4605,"herren":4606,"##haber":4607,"zugang":4608,"mussten":4609,"sm":4610,"inhalt":4611,"ausger":4612,"brü":4613,"verab":4614,"kontroll":4615,"##ktive":4616,"##eb":4617,"gemeinschaften":4618,"##–19":4619,"leistung":4620,"ied":4621,"weltkrieg":4622,"wichtigsten":4623,"##heira":4624,"##rechts":4625,"##81":4626,"änderung":4627,"3,":4628,"##via":4629,"bestä":4630,"gol":4631,"##reibung":4632,"##ymnas":4633,"exist":4634,"##ders":4635,"##kü":4636,"anzei":4637,"völlig":4638,"vereins":4639,"software":4640,"sing":4641,"griechen":4642,"milliarden":4643,"sw":4644,"sow":4645,"kleiner":4646,"gewinn":4647,"##indest":4648,"kombin":4649,"##73":4650,"##amarill":4651,"##setzungen":4652,"##gül":4653,"ungar":4654,"dinge":4655,"##bericht":4656,"##zeichnung":4657,"liga":4658,"orig":4659,"leistungs":4660,"mik":4661,"teilen":4662,"##ef":4663,"##last":4664,"##ington":4665,"##tp":4666,"gewer":4667,"ruh":4668,"gewinnen":4669,"zusch":4670,"gebaut":4671,"spät":4672,"##lla":4673,"verhalten":4674,"folgt":4675,"##ii":4676,"wahrscheinlich":4677,"folgte":4678,"##olo":4679,"strecke":4680,"##ata":4681,"kontrolle":4682,"##sal":4683,"kooper":4684,"##bedingungen":4685,"klasse":4686,"antwort":4687,"1960":4688,"##dig":4689,"antrag":4690,"wild":4691,"sign":4692,"gas":4693,"regierungs":4694,"##gelt":4695,"redu":4696,"warten":4697,"brachte":4698,"arbeitnehmer":4699,"aben":4700,"##inter":4701,"cr":4702,"pflanzen":4703,"##anwalt":4704,"##stern":4705,"verletzt":4706,"##ient":4707,"rob":4708,"röm":4709,"freien":4710,"tätigkeit":4711,"job":4712,"##ologische":4713,"##1-":4714,"vermut":4715,"suche":4716,"##meisterschaft":4717,"beitrag":4718,"##vorschriften":4719,"##fast":4720,"##wen":4721,"##demie":4722,"##fäl":4723,"##lands":4724,"150":4725,"silber":4726,"##redit":4727,"tschech":4728,"##ffel":4729,"berichtet":4730,"##4-":4731,"vereinbar":4732,"elf":4733,"lass":4734,"##weile":4735,"bud":4736,"letzter":4737,"##pfel":4738,"termin":4739,"ereig":4740,"##48":4741,"##ters":4742,"elektr":4743,"führung":4744,"##dis":4745,"##zut":4746,"##punkte":4747,"##nungs":4748,"##ini":4749,"##zwei":4750,"fläche":4751,"einführung":4752,"##vorsitzen":4753,"##brit":4754,"kandid":4755,"nächste":4756,"reform":4757,"##df":4758,"stärker":4759,"##oc":4760,"ermitt":4761,"##ochen":4762,"##finale":4763,"service":4764,"##troffen":4765,"organ":4766,"##wart":4767,"zumindest":4768,"gründung":4769,"##sti":4770,"wm":4771,"stabil":4772,"fällen":4773,"läuft":4774,"möglichkeiten":4775,"aufzu":4776,"##sprä":4777,"immobil":4778,"cap":4779,"denken":4780,"##zeugt":4781,"sinne":4782,"matt":4783,"uz":4784,"gründen":4785,"einfluss":4786,"##une":4787,"klin":4788,"beziehungen":4789,"politiker":4790,"##tags":4791,"##griffen":4792,"verband":4793,"##uche":4794,"##holt":4795,"##ickt":4796,"##av":4797,"räum":4798,"bislang":4799,"angeboten":4800,"viertel":4801,"szen":4802,"2019":4803,"stock":4804,"schreiben":4805,"##krank":4806,"##):":4807,"mul":4808,"##fähigkeit":4809,"entsprechend":4810,"##geschlagen":4811,"namens":4812,"ros":4813,"trotzdem":4814,"<":4815,"##bed":4816,"##ckung":4817,"bekannte":4818,"firmen":4819,"pan":4820,"manchmal":4821,"(0)":4822,"wann":4823,"##serie":4824,"club":4825,"altern":4826,"rde":4827,"waffen":4828,"lebt":4829,"por":4830,"##üm":4831,"##chef":4832,"technischen":4833,"##gänger":4834,"arbeitet":4835,"##uel":4836,"umgebung":4837,"$":4838,"##sr":4839,"##merksam":4840,"##mode":4841,"automat":4842,"##werte":4843,"install":4844,"wander":4845,"braucht":4846,"aka":4847,"mwst":4848,"journal":4849,"dritte":4850,"##ählte":4851,"perfe":4852,"##ya":4853,"herbst":4854,"##rige":4855,"preu":4856,"geburt":4857,"##ical":4858,"##kin":4859,"tiere":4860,"##chester":4861,"ziehen":4862,"##runde":4863,"##pan":4864,"koordin":4865,"ziv":4866,"edr":4867,"nummer":4868,"##gas":4869,"konkur":4870,"schlaf":4871,"##erseits":4872,"website":4873,"sau":4874,"erfolgt":4875,"elektron":4876,"iii":4877,"##volution":4878,"feier":4879,"##ads":4880,"kenn":4881,"##index":4882,"streit":4883,"kamer":4884,"##hörde":4885,"unterstützen":4886,"wand":4887,"johannes":4888,"uk":4889,"iv":4890,"anlage":4891,"##send":4892,"kop":4893,"aufmerksam":4894,"##sburg":4895,"(200":4896,"##lig":4897,"ott":4898,"with":4899,"schützen":4900,"weihnacht":4901,"agr":4902,"##book":4903,"##far":4904,"unserem":4905,"hafen":4906,"bv":4907,"erwartet":4908,"##ländern":4909,"regional":4910,"##ision":4911,"##mitglied":4912,"jüng":4913,"sowjet":4914,"versuchen":4915,"fallen":4916,"schulen":4917,"##sein":4918,"##71":4919,"1988":4920,"schrei":4921,"##ützt":4922,"##frau":4923,"trägt":4924,"vertreten":4925,"kritik":4926,"mex":4927,"©":4928,"##........":4929,"größe":4930,"getan":4931,"##geld":4932,"##mund":4933,"entwicklungs":4934,"polen":4935,"informations":4936,"entscheid":4937,"lernen":4938,"beton":4939,"##95":4940,"zeitraum":4941,"aufbau":4942,"##verwaltung":4943,"vergessen":4944,"##mor":4945,"nation":4946,"##itzer":4947,"##worten":4948,"##sper":4949,"falls":4950,"wettbewerbs":4951,"##ates":4952,"fax":4953,"##ständige":4954,"heiligen":4955,"beträgt":4956,"mittlerweile":4957,"jeweiligen":4958,"nutzung":4959,"vern":4960,"gern":4961,"ehemalige":4962,"##ielten":4963,"möchten":4964,"grenze":4965,"such":4966,"##omin":4967,"##wiegend":4968,"kommenden":4969,"kirch":4970,"dreh":4971,"runde":4972,"##pert":4973,"stet":4974,"offenbar":4975,"##europ":4976,"gewonnen":4977,"var":4978,"unten":4979,"ken":4980,"werke":4981,"wehr":4982,"länge":4983,"##denken":4984,"www":4985,"daraufhin":4986,"binnen":4987,"##bas":4988,"page":4989,"live":4990,"beteiligt":4991,"##gebäude":4992,"##osoph":4993,"dachte":4994,"lab":4995,"mont":4996,"##strecke":4997,"1987":4998,"städte":4999,"##65":5000,"erde":5001,"##titel":5002,"##4/":5003,"##alb":5004,"##mens":5005,"beam":5006,"öl":5007,"diskuss":5008,"##dl":5009,"luxem":5010,"##gelassen":5011,"grünen":5012,"##famil":5013,"break":5014,"meinung":5015,"##leg":5016,"soziale":5017,"##wander":5018,"##ther":5019,"##ces":5020,"##flächen":5021,"genannten":5022,"##union":5023,"chance":5024,"##fuhr":5025,"alexander":5026,"überein":5027,"unmittelbar":5028,"armee":5029,"düssel":5030,"##dingt":5031,"sied":5032,"verfügt":5033,"##blatt":5034,"##kul":5035,"##ießen":5036,"##griffe":5037,"straf":5038,"angenommen":5039,"##back":5040,"temperatur":5041,"flor":5042,"wettbewerb":5043,"satz":5044,"##41":5045,"leitung":5046,"##lehr":5047,"1985":5048,"##ua":5049,"##star":5050,"jer":5051,"verbrei":5052,"geheim":5053,"kab":5054,"dpa":5055,"geschaffen":5056,"##irks":5057,"##oder":5058,"##eisen":5059,"stad":5060,"gri":5061,"transport":5062,"##ischem":5063,"bereichen":5064,"##hst":5065,"auswahl":5066,"zahlreichen":5067,"down":5068,"##gegeben":5069,"ziele":5070,"##ye":5071,"berat":5072,"menge":5073,"mär":5074,"##hungs":5075,"fahrzeug":5076,"anton":5077,"außerhalb":5078,"##99":5079,"##tierten":5080,"design":5081,"england":5082,"##2;":5083,"verstehen":5084,"unge":5085,"beschäftigung":5086,"##val":5087,"##mittelt":5088,"1986":5089,"##haf":5090,"##ament":5091,"ap":5092,"jüd":5093,"reicht":5094,"##ckte":5095,"##ios":5096,"fernseh":5097,"##ährt":5098,"bach":5099,"anschluss":5100,"##fc":5101,"verpflich":5102,"richter":5103,"##ministerium":5104,"##bis":5105,"bemü":5106,"entstehen":5107,"schweden":5108,"##ühm":5109,"0.":5110,"fenster":5111,"interessen":5112,"verhältnis":5113,"relativ":5114,"leistungen":5115,"##ones":5116,"autob":5117,"##ics":5118,"quad":5119,"##angeb":5120,"theor":5121,"chef":5122,"amerikan":5123,"rand":5124,"stol":5125,"##geschäft":5126,"verbesserung":5127,"##able":5128,"##alismus":5129,"ausgestat":5130,"freunde":5131,"pfer":5132,"##wohnern":5133,"##wärts":5134,"zeigte":5135,"##inden":5136,"urteil":5137,"##angt":5138,"##dass":5139,"intens":5140,"##heiratet":5141,"gefahr":5142,"##3/":5143,"dokument":5144,"fraktion":5145,"dollar":5146,"##ep":5147,"##ändischen":5148,"geplant":5149,"##ancen":5150,"##iziert":5151,"##sem":5152,"mehrheit":5153,"umfasst":5154,"##okal":5155,"rock":5156,"kö":5157,"sprachen":5158,"verbraucher":5159,"auswirkungen":5160,"##dam":5161,"nachfolger":5162,"nu":5163,"##ots":5164,"##its":5165,"auseinander":5166,"ve":5167,"##don":5168,"leipzig":5169,"zuerst":5170,"betreffen":5171,"##endete":5172,"eisenbahn":5173,"erwachsen":5174,"##sex":5175,"tom":5176,"##asil":5177,"aufent":5178,"ähnlich":5179,"##etzung":5180,"##ektor":5181,"##kö":5182,"##ng":5183,"daniel":5184,"finn":5185,"##3-":5186,"weder":5187,"zweck":5188,"welcher":5189,"1950":5190,"andreas":5191,"##dor":5192,"##irm":5193,"##leistung":5194,"##erin":5195,"##aden":5196,"wus":5197,"behin":5198,"französische":5199,"domin":5200,"vermutlich":5201,"näher":5202,"britischen":5203,"##ierende":5204,"durchführung":5205,"##war":5206,"bauern":5207,"32":5208,"##post":5209,"##schte":5210,"beschrän":5211,"endlich":5212,"ven":5213,"allgemeine":5214,"##zur":5215,"fanden":5216,"##ildet":5217,"back":5218,"erwähnt":5219,"##bliothe":5220,"unbek":5221,"##way":5222,"weib":5223,"zeichen":5224,"##zunehmen":5225,"##tifiz":5226,"##rab":5227,"##zel":5228,"##iter":5229,"##72":5230,"zeiten":5231,"schä":5232,"erkennen":5233,"##mat":5234,"##häuser":5235,"ausstellung":5236,"##kretär":5237,"sö":5238,"##britann":5239,"regelmäßig":5240,"projekte":5241,"metall":5242,"philipp":5243,"umst":5244,"öffentliche":5245,"kro":5246,"ann":5247,"##technik":5248,"gezeigt":5249,"kost":5250,"geschrieben":5251,"brief":5252,"stammen":5253,"karte":5254,"digit":5255,"verantwortlich":5256,"langsam":5257,"königs":5258,"##ime":5259,"fro":5260,"schwester":5261,"(3)":5262,"nik":5263,"rett":5264,"eröffnet":5265,"himmel":5266,"##zo":5267,"vorsitzender":5268,"fisch":5269,"##fu":5270,"pre":5271,"verg":5272,"zugleich":5273,"nachhal":5274,"tisch":5275,"sä":5276,"dritt":5277,"abgeschlossen":5278,"stammt":5279,"beant":5280,"##hren":5281,"gehe":5282,"müsse":5283,"krankenhaus":5284,"entschuld":5285,"##äst":5286,"notwendig":5287,"##sichtig":5288,"berücksich":5289,"chor":5290,"##wr":5291,"blü":5292,"studium":5293,"prü":5294,"##istisch":5295,"##=\"":5296,"##ruf":5297,"##aters":5298,"kollegen":5299,"beginnen":5300,"hielt":5301,"##muse":5302,"entste":5303,"immobilien":5304,"hir":5305,"tanz":5306,"##zern":5307,"sachsen":5308,"val":5309,"griech":5310,"las":5311,"übernommen":5312,"##tv":5313,"ausschließlich":5314,"stunde":5315,"bezeichnung":5316,"präsidenten":5317,"aktualisiert":5318,"ri":5319,"##dienste":5320,"sun":5321,"##hoch":5322,"count":5323,"##igungen":5324,"league":5325,"il":5326,"denke":5327,"##fried":5328,"entlang":5329,"sn":5330,"bla":5331,"bade":5332,"wollten":5333,"##44":5334,"##jähriger":5335,"##rhein":5336,"anderes":5337,"##:15":5338,"##beck":5339,"uner":5340,"station":5341,"sech":5342,"vorder":5343,"müller":5344,"verur":5345,"##fonds":5346,"##ose":5347,"##plätze":5348,"rennen":5349,"4,":5350,"##ünfte":5351,"hannover":5352,"##forschung":5353,"patienten":5354,"fällt":5355,"ausgaben":5356,"##bundes":5357,"radio":5358,"nahr":5359,"ddr":5360,"##pon":5361,"aktuell":5362,"##alle":5363,"##westen":5364,"höchst":5365,"75":5366,"frühen":5367,"fortsch":5368,"diesel":5369,"##bungen":5370,"besuchte":5371,"##wechs":5372,"baden":5373,"frag":5374,"##eidet":5375,"##auftrag":5376,"denkmal":5377,"##lecht":5378,"##windigkeit":5379,"##selben":5380,"##entwicklung":5381,"griechenland":5382,"größere":5383,"##mär":5384,"##31":5385,"schi":5386,"solchen":5387,"zerstör":5388,"(„":5389,"werte":5390,"##republik":5391,"halt":5392,"einfuhr":5393,"technik":5394,"material":5395,"besitzt":5396,"##region":5397,"registr":5398,"##rick":5399,"abst":5400,"ungl":5401,"legen":5402,"ermöglicht":5403,"william":5404,"erforderlich":5405,"technische":5406,"fuhr":5407,"##2018":5408,"bett":5409,"grenzen":5410,"weiterer":5411,"##aka":5412,"steu":5413,"dipl":5414,"##/2016":5415,"##gelöst":5416,"##zahlen":5417,"urs":5418,"##dpa":5419,"neg":5420,"verkauft":5421,"mut":5422,"##organisation":5423,"##städ":5424,"400":5425,"##mlich":5426,"##achtung":5427,"##gewöhn":5428,"##achung":5429,"breakfast":5430,"##alition":5431,"fund":5432,"türkei":5433,"##iers":5434,"betrieben":5435,"fäh":5436,"anp":5437,"##spor":5438,"##verständ":5439,"stefan":5440,"getroffen":5441,"brun":5442,"##ifor":5443,"##onom":5444,"##ida":5445,"wirst":5446,"wall":5447,"##siehe":5448,"tabelle":5449,"minute":5450,"schick":5451,"##kord":5452,"##weder":5453,"##immobil":5454,"##schu":5455,"spaß":5456,"leiden":5457,"phys":5458,"##otte":5459,"maler":5460,"##räume":5461,"wiederum":5462,"show":5463,"##tain":5464,"##32":5465,"jack":5466,"selben":5467,"iden":5468,"dürfte":5469,"bildet":5470,"verlag":5471,"musst":5472,"##gelbe":5473,"##kohol":5474,"##volle":5475,"gesicht":5476,"han":5477,"##reff":5478,"verlänger":5479,"##frastruktur":5480,"gatt":5481,"begrü":5482,"1984":5483,"##sage":5484,"gegner":5485,"slow":5486,"versicher":5487,"erfahrung":5488,"hintergrund":5489,"denk":5490,"kapital":5491,"##ness":5492,"##kultur":5493,"##besch":5494,"##pfen":5495,"zufrieden":5496,"##una":5497,"(6":5498,"##liegenden":5499,"beschäftigt":5500,"65":5501,"adr":5502,"fahrer":5503,"erkennt":5504,"##ordnet":5505,"55":5506,"##hilfen":5507,"##maschinen":5508,"34":5509,"##stätte":5510,"bat":5511,"publikum":5512,"##ee":5513,"##ular":5514,"##hop":5515,"entspricht":5516,"##:10":5517,"deinen":5518,"pflege":5519,"sänger":5520,"unterwegs":5521,"##ena":5522,"##iforn":5523,"zivil":5524,"arbeiter":5525,"standort":5526,"älte":5527,"##pfl":5528,"haushalt":5529,"belgien":5530,"zür":5531,"komment":5532,"##kau":5533,"zurückge":5534,"##ience":5535,"südlich":5536,"wenigen":5537,"wiener":5538,"großbritann":5539,"proje":5540,"durchschnitt":5541,"ärz":5542,"##tl":5543,"##förm":5544,"mac":5545,"##iveau":5546,"##8-":5547,"reag":5548,"##iat":5549,"##regel":5550,"##tliche":5551,"produktions":5552,"luxemburg":5553,"##var":5554,"##cup":5555,"lieber":5556,"wunsch":5557,"sogenannten":5558,"##/08":5559,"##jahres":5560,"bewegung":5561,"##onstr":5562,"##ny":5563,"beschwer":5564,"##iets":5565,"##nl":5566,"praxis":5567,"zufolge":5568,"carl":5569,"saint":5570,"##aille":5571,"bewusst":5572,"##7/":5573,"laufe":5574,"that":5575,"agen":5576,"##ynam":5577,"##rifft":5578,"##sprogramm":5579,"##igar":5580,"##anzler":5581,"sar":5582,"wid":5583,"##verkehrs":5584,"##mut":5585,"85":5586,"##splan":5587,"()":5588,"##ux":5589,"##zin":5590,"##ckey":5591,"mikro":5592,"brasil":5593,"ausgezeichnet":5594,"halle":5595,"daraus":5596,"##ses":5597,"##1⁄":5598,"bunde":5599,"##peten":5600,"##ließung":5601,"berühm":5602,"##dar":5603,"publ":5604,"wären":5605,"stimmt":5606,"parall":5607,"##möglichkeiten":5608,"freiwill":5609,"angesichts":5610,"##künd":5611,"spitzen":5612,"##stattung":5613,"kaffe":5614,"hauptsächlich":5615,"##agd":5616,"schuld":5617,"entschieden":5618,"flie":5619,"##liste":5620,"drogen":5621,"angriff":5622,"großes":5623,"hauptstadt":5624,"gefallen":5625,"technologie":5626,"champ":5627,"verständ":5628,"scho":5629,"last":5630,"##gänge":5631,"bedro":5632,"##versammlung":5633,"regeln":5634,"##temberg":5635,"syr":5636,"##abrik":5637,"rud":5638,"breite":5639,"kapitel":5640,"##univers":5641,"##leitung":5642,"##schi":5643,"##beg":5644,"rechten":5645,"gewerk":5646,"lös":5647,"##/10":5648,"##vn":5649,"sant":5650,"entwickelte":5651,"herstellung":5652,"stellungnahme":5653,"frieden":5654,"richard":5655,"##ction":5656,"punkten":5657,"gespielt":5658,"##ema":5659,"englisch":5660,"##ura":5661,"stets":5662,"begonnen":5663,"##2015":5664,"ç":5665,"##sm":5666,"##kre":5667,"schlüssel":5668,"##“)":5669,"aktuellen":5670,"##emark":5671,"##cial":5672,"##üssen":5673,"##yd":5674,"hingegen":5675,"jährlich":5676,"##lichkeiten":5677,"1983":5678,"##emente":5679,"##stru":5680,"ändern":5681,"niedr":5682,"agrar":5683,"quadrat":5684,"##ttemberg":5685,"konfl":5686,"gehalten":5687,"##bek":5688,"verdamm":5689,"##dient":5690,"##http":5691,"schlacht":5692,"konstru":5693,"##orgt":5694,"vollständig":5695,"bron":5696,"##abkommen":5697,"umsetzung":5698,"endgül":5699,"gegensatz":5700,"##okoll":5701,"##losigkeit":5702,"wählen":5703,"studenten":5704,"nördlich":5705,"##bra":5706,"##tierung":5707,"veröffentlichte":5708,"colle":5709,"chines":5710,"schaden":5711,"konzert":5712,"##2010":5713,"##anche":5714,"anmel":5715,"stei":5716,"##änglich":5717,"olympischen":5718,"ausdruck":5719,"lou":5720,"##ban":5721,"anfrage":5722,"##vr":5723,"entweder":5724,"1979":5725,"##außen":5726,"zit":5727,"aktivitäten":5728,"##&#22":5729,"konzept":5730,"##zung":5731,"##ösen":5732,"##heimer":5733,"klassen":5734,"historischen":5735,"komplett":5736,"reichs":5737,"wieso":5738,"gingen":5739,"philosoph":5740,"leider":5741,"beschlossen":5742,"wachsen":5743,"##messen":5744,"your":5745,"brem":5746,"##reiber":5747,"erfahrungen":5748,"##möglichen":5749,"##rägen":5750,"##ögen":5751,"##text":5752,"##amarillas":5753,"##07.":5754,"##schulen":5755,"##äh":5756,"still":5757,"bühne":5758,"##geschoss":5759,"##6/":5760,"##ney":5761,"##ville":5762,"##url":5763,"off":5764,"revolution":5765,"##legten":5766,"kompon":5767,"wolfgang":5768,"poln":5769,"##ally":5770,"kategorie":5771,"##tement":5772,"##1⁄4":5773,"engag":5774,"franc":5775,"parteien":5776,"steigen":5777,"sitzung":5778,"wirkung":5779,"##schloss":5780,"zü":5781,"linken":5782,"dres":5783,"##fahrens":5784,"##kal":5785,"büro":5786,"##lager":5787,"##fred":5788,"##ove":5789,"geprä":5790,"##stechn":5791,"entsprechenden":5792,"##kirchen":5793,"(199":5794,"##cm":5795,"bir":5796,"##ktiven":5797,"öffentlichkeit":5798,"truppen":5799,"erlaubt":5800,"schen":5801,"##aucht":5802,"besonderen":5803,"technolog":5804,"entwickeln":5805,"##08.":5806,"ferner":5807,"einrichtungen":5808,"##hauses":5809,"zen":5810,"##iment":5811,"herzen":5812,"weiteres":5813,"erwarten":5814,"metern":5815,"vorl":5816,"1982":5817,"fotos":5818,"güter":5819,"##bew":5820,"är":5821,"gründete":5822,"küche":5823,"reisen":5824,"begrenz":5825,"##app":5826,"##ziel":5827,"gewicht":5828,"1000":5829,"tritt":5830,"##bc":5831,"1981":5832,"verheiratet":5833,"##69":5834,"##gewicht":5835,"##ziehung":5836,"##zeugung":5837,"blau":5838,"world":5839,"##dt":5840,"miteinander":5841,"##jenigen":5842,"vergangenheit":5843,"soldaten":5844,"##anischen":5845,"1975":5846,"gefangen":5847,"papier":5848,"##gener":5849,"##elten":5850,"sum":5851,"##drück":5852,"jahrzehn":5853,"toll":5854,"##irol":5855,"einschließlich":5856,"veranstaltung":5857,"einkommen":5858,"warte":5859,"einrichtung":5860,"nud":5861,"##sprecher":5862,"##schafft":5863,"haft":5864,"##partner":5865,"##derten":5866,"bier":5867,"##ssystem":5868,"orien":5869,"##/12":5870,"##dir":5871,"##dp":5872,"gesetzt":5873,"düsseldorf":5874,"##itar":5875,"##klärung":5876,"div":5877,"##meer":5878,"abschnitt":5879,"holl":5880,"##fragen":5881,"ungefähr":5882,"##projekt":5883,"##din":5884,"##gh":5885,"bücher":5886,"sprecher":5887,"getö":5888,"bischof":5889,"extrem":5890,"##ffizien":5891,"##oo":5892,"windows":5893,"finale":5894,"##eicher":5895,"##produktion":5896,"##sellschaften":5897,"karten":5898,"äg":5899,"##blei":5900,"strand":5901,"##holz":5902,"gespräch":5903,"kapit":5904,"ausbau":5905,"usw":5906,"##ikations":5907,"high":5908,"##insel":5909,"##rüst":5910,"behandlung":5911,"alkohol":5912,"##vent":5913,"##führten":5914,"##werks":5915,"legte":5916,"##law":5917,"##arl":5918,"##mag":5919,"verpflicht":5920,"habt":5921,"##station":5922,"##abt":5923,"##grenz":5924,"dist":5925,"##sw":5926,"früheren":5927,"erinnert":5928,"klaus":5929,"cas":5930,"##37":5931,"verurs":5932,"kontin":5933,"##eichen":5934,"##sprü":5935,"##ales":5936,"&#":5937,"mission":5938,"portugal":5939,"##klass":5940,"stellvertreten":5941,"##09.":5942,"has":5943,"##sätze":5944,"ausgeb":5945,"##nee":5946,"fahrzeuge":5947,"ersetzt":5948,"direktor":5949,"ausnahme":5950,"gesche":5951,"##ässer":5952,"##\"),":5953,"rem":5954,"##stoß":5955,"##oß":5956,"stieg":5957,"weißen":5958,"##sektor":5959,"musikal":5960,"großbritannien":5961,"5,":5962,"##ungsant":5963,"##euten":5964,"spezif":5965,"arg":5966,"schnit":5967,"bezirks":5968,"wege":5969,"verp":5970,"parallel":5971,"##partment":5972,"mas":5973,"turm":5974,"beför":5975,"sur":5976,"##unn":5977,"##sagen":5978,"europas":5979,"##rochen":5980,"erklärung":5981,"trocken":5982,"koch":5983,"amerikanischen":5984,"beschrieben":5985,"##rufe":5986,"##angs":5987,"##/03":5988,"erläu":5989,"\"(":5990,"##gg":5991,"##10;":5992,"##ötz":5993,"ndu":5994,"kurs":5995,"##ritts":5996,"schmid":5997,"##deu":5998,"untersuchung":5999,"##05.":6000,"udn":6001,"gelände":6002,"##rats":6003,"##ändler":6004,"##:20":6005,"privaten":6006,"wachstum":6007,"heira":6008,"##plo":6009,"est":6010,"roten":6011,"1978":6012,"ejf":6013,"2008,":6014,"verantwortung":6015,"ziemlich":6016,"kont":6017,"##auert":6018,"##hü":6019,"abhäng":6020,"breit":6021,"##64":6022,"##bay":6023,"alters":6024,"bestätigt":6025,"##zähl":6026,"downlo":6027,"##ängnis":6028,"finanzierung":6029,"grad":6030,"block":6031,"roll":6032,"##:45":6033,"nationale":6034,"trin":6035,"merkel":6036,"nennen":6037,"farb":6038,"loc":6039,"##anen":6040,"anspruch":6041,"lim":6042,"net":6043,"haut":6044,"nür":6045,"zurückzu":6046,"lebensmittel":6047,"ill":6048,"##hören":6049,"zuständig":6050,"egal":6051,"brüssel":6052,"open":6053,"##treten":6054,"##uelle":6055,"##fir":6056,"##suchen":6057,"##kommission":6058,"ernannt":6059,"rec":6060,"kammer":6061,"betrug":6062,"änderungen":6063,"##sequ":6064,"möglicherweise":6065,"##akt":6066,"dnu":6067,"russischen":6068,"sektor":6069,"##aner":6070,"##7-":6071,"tw":6072,"##01.":6073,"aufnahme":6074,"damaligen":6075,"##zif":6076,"verhindern":6077,"säm":6078,"studie":6079,"quer":6080,"bestimmungen":6081,"empfehl":6082,"mittelalter":6083,"komplex":6084,"##otos":6085,"bekam":6086,"##freund":6087,"schlecht":6088,"demonstr":6089,"zuschauer":6090,"##echnet":6091,"veranstaltungen":6092,"##aud":6093,"joseph":6094,"##holen":6095,"befand":6096,"##essern":6097,"##pag":6098,"trag":6099,"##ric":6100,"##service":6101,"##schaff":6102,"##liefert":6103,"stimme":6104,"schöne":6105,"halte":6106,"##gem":6107,"##oe":6108,"##ühren":6109,"##gerufen":6110,"datum":6111,"hersteller":6112,"##verhält":6113,"erschienen":6114,"ausgew":6115,"out":6116,"##bast":6117,"##uell":6118,"wochenende":6119,"größeren":6120,"strei":6121,"##mod":6122,"hun":6123,"##änen":6124,"bekomm":6125,"trifft":6126,"ausführ":6127,"standen":6128,"ress":6129,"##ox":6130,"##ford":6131,"künd":6132,"##cebook":6133,"ausland":6134,"stadtteil":6135,"##gefü":6136,"##stunden":6137,"##zone":6138,"##amb":6139,"daneben":6140,"cro":6141,"otto":6142,"läng":6143,"##ory":6144,"bisschen":6145,"1972":6146,"2018,":6147,"konferenz":6148,"guter":6149,"aktuelle":6150,"ukra":6151,"dänemark":6152,"##ymnasium":6153,"ausreichen":6154,"##onn":6155,"todes":6156,"gedanken":6157,"##tif":6158,"##hington":6159,"golden":6160,"##stes":6161,"bemer":6162,"##.-":6163,"verabschie":6164,"##01":6165,"passen":6166,"ausgestattet":6167,"##ysil":6168,"zählt":6169,"tore":6170,"seid":6171,"annahme":6172,"juden":6173,"verwenden":6174,"prie":6175,"vorstand":6176,"zusätzliche":6177,"dra":6178,"##94":6179,"##lösung":6180,"##ässig":6181,"serv":6182,"bom":6183,"##:05":6184,"##konom":6185,"effe":6186,"fleisch":6187,"josef":6188,"##tell":6189,"liber":6190,"beschreibung":6191,"##ozi":6192,"gru":6193,"ortsteil":6194,"wichtiger":6195,"schätz":6196,"efs":6197,"##leger":6198,"##bezirk":6199,"##wirt":6200,"befür":6201,"##ysilvia":6202,"##ladysilvia":6203,"koalition":6204,"##chem":6205,"lust":6206,"##rn":6207,"##06.":6208,"##kore":6209,"absolvierte":6210,"120":6211,"##pat":6212,"stern":6213,"bedarf":6214,"fans":6215,"##/01":6216,"##haup":6217,"zustand":6218,"wies":6219,"james":6220,"##sicher":6221,"https":6222,"formen":6223,"wohnungen":6224,"##inform":6225,"gemeinder":6226,"seni":6227,"feu":6228,"anal":6229,"starken":6230,"county":6231,"##alz":6232,"##amin":6233,"##schö":6234,"übertragen":6235,"analyse":6236,"konkurr":6237,"kas":6238,"hell":6239,"wusste":6240,"##hafte":6241,"##bern":6242,"verwand":6243,"betrifft":6244,"laden":6245,"starke":6246,"verlor":6247,"jazz":6248,"hieß":6249,"ermöglichen":6250,"prinzip":6251,"##uck":6252,"finde":6253,"qualifiz":6254,"##aktiv":6255,"erstes":6256,"##8;":6257,"##itten":6258,"##schm":6259,"##weite":6260,"mehrfach":6261,"disku":6262,"traum":6263,"letzt":6264,"##oh":6265,"original":6266,"italienischen":6267,"tabellen":6268,"autobahn":6269,"dec":6270,"om":6271,"initiative":6272,"übernehmen":6273,"entdeckt":6274,"islam":6275,"bundesliga":6276,"sekunden":6277,"##abteilung":6278,"sehe":6279,"vari":6280,"##jahren":6281,"diver":6282,"hinblick":6283,"rau":6284,"flex":6285,"kredit":6286,"kaufen":6287,"chancen":6288,"schien":6289,"nahmen":6290,"##gb":6291,"eb":6292,"##edia":6293,"elektro":6294,"arbeitgeber":6295,"##national":6296,"vertrags":6297,"1976":6298,"##maschine":6299,"grundsätz":6300,"baby":6301,"gutes":6302,"tonnen":6303,"erzeugnisse":6304,"##pap":6305,"frühjahr":6306,"gleiche":6307,"münster":6308,"autos":6309,"private":6310,"investition":6311,"krimin":6312,"##präsent":6313,"##orte":6314,"verfügbar":6315,"##lleg":6316,"miet":6317,"##auff":6318,"seitdem":6319,"##jdi":6320,"eingeführt":6321,"benannt":6322,"##usion":6323,"anna":6324,"##ain":6325,"##66":6326,"##fiel":6327,"management":6328,"harmon":6329,"wesentlichen":6330,"##dre":6331,"spezial":6332,"1974":6333,"autom":6334,"dienen":6335,"fischerei":6336,"##het":6337,"walter":6338,"grundstück":6339,"cd":6340,"lad":6341,"##38":6342,"##:11":6343,"##forderung":6344,"##genden":6345,"gestern":6346,"flächen":6347,"secon":6348,"##baum":6349,"prüfung":6350,"##252;":6351,"einwohnern":6352,"begeister":6353,"anlagen":6354,"çá":6355,"##aller":6356,"rücken":6357,"lob":6358,"bezirk":6359,"##isierte":6360,"##kön":6361,"vorzu":6362,"gesprä":6363,"gefühl":6364,"ansicht":6365,"abteilung":6366,"mord":6367,"erscheint":6368,"lan":6369,"##geord":6370,"teu":6371,"irland":6372,"##waren":6373,"jub":6374,"ord":6375,"investitionen":6376,"##ibt":6377,"##orien":6378,"mechan":6379,"##pm":6380,"##stad":6381,"sucht":6382,"##nern":6383,"späteren":6384,"##versorgung":6385,"##club":6386,"gerichtshof":6387,"leisten":6388,"##mater":6389,"link":6390,"##museum":6391,"##nummer":6392,"##eur":6393,"behandelt":6394,"zieht":6395,"##lehen":6396,"kühl":6397,"herum":6398,"hochschule":6399,"1977":6400,"##hnte":6401,"bekl":6402,"milch":6403,"plötz":6404,"stör":6405,"##deutschland":6406,"##ando":6407,"hinsichtlich":6408,"##sprech":6409,"num":6410,"##\",\"":6411,"geringer":6412,"angegeben":6413,"gött":6414,"teilnahme":6415,"pot":6416,"überall":6417,"grand":6418,"##55":6419,"##achs":6420,"künftig":6421,"sonne":6422,"av":6423,"upd":6424,"getötet":6425,"##etr":6426,"poten":6427,"lied":6428,"##kurs":6429,"##enter":6430,"positiv":6431,"sterben":6432,"george":6433,"roh":6434,"senden":6435,"##eitungen":6436,"##47":6437,"mand":6438,"1973":6439,"wichtigen":6440,"luxus":6441,"zürich":6442,"engagement":6443,"attra":6444,"##pos":6445,"wirtschaftliche":6446,"##:01":6447,"##weist":6448,"unabhängig":6449,"arzt":6450,"profession":6451,"schmer":6452,"entscheidungen":6453,"verzeich":6454,"##ameister":6455,"frühstück":6456,"##bett":6457,"##derungen":6458,"freuen":6459,"migr":6460,"##wett":6461,"hermann":6462,"##grenze":6463,"eingerichtet":6464,"erzielte":6465,"komme":6466,"##legte":6467,"##mitglieder":6468,"kurze":6469,"manche":6470,"##kas":6471,"eingesch":6472,"##xen":6473,"##würd":6474,"##bul":6475,"unterricht":6476,"##9/":6477,"richtige":6478,"##hofs":6479,"bekannten":6480,"##fur":6481,"cra":6482,"ah":6483,"##ibel":6484,"##äumen":6485,"renn":6486,"##lligen":6487,"##stellungs":6488,"##san":6489,"neubau":6490,"##images":6491,"##itsch":6492,"ausgabe":6493,"##bezogen":6494,"vorschriften":6495,"##chner":6496,"dient":6497,"fas":6498,"##apie":6499,"jean":6500,"farben":6501,"anh":6502,"##ätigkeit":6503,"##6-":6504,"urk":6505,"##umenten":6506,"bestätig":6507,"kehrte":6508,"##ml":6509,"bri":6510,"ring":6511,"view":6512,"umge":6513,"kostenlos":6514,"reichen":6515,"anforderungen":6516,"rettungs":6517,"##datei":6518,"##äfte":6519,"nett":6520,"schwed":6521,"##ziplin":6522,"song":6523,"##tau":6524,"##zeitung":6525,"bremen":6526,"beeinfl":6527,"weist":6528,"##ächs":6529,"kass":6530,"mache":6531,"stiftung":6532,"2007,":6533,"latein":6534,"##karte":6535,"wahrheit":6536,"##tal":6537,"kos":6538,"ersatz":6539,"##imen":6540,"##:04":6541,"quellen":6542,"besuchen":6543,"washington":6544,"vertrauen":6545,"täglich":6546,"begeg":6547,"##eting":6548,"##cd":6549,"regul":6550,"##strich":6551,"##sekretär":6552,"beteiligten":6553,"thr":6554,"weihnachts":6555,"veränderungen":6556,"##top":6557,"##funk":6558,"kür":6559,"ergeben":6560,"fran":6561,"sitzen":6562,"##ümer":6563,"##03.":6564,"##euert":6565,"1920":6566,"zerstört":6567,"falsch":6568,"##:19":6569,"profit":6570,"##messer":6571,"expl":6572,"##bewegung":6573,"ök":6574,"symbol":6575,"ausbildungs":6576,"jak":6577,"nomin":6578,"kul":6579,"##sieg":6580,"##zum":6581,"nei":6582,"entsprechende":6583,"mitteilung":6584,"##otto":6585,"##itäts":6586,"##nberg":6587,"musiker":6588,"##schafter":6589,"ruf":6590,"way":6591,"##teilte":6592,"geschehen":6593,"##örter":6594,"vogel":6595,"hergestellt":6596,"##unsten":6597,"##veranst":6598,"250":6599,"dick":6600,"##ssen":6601,"##:12":6602,"##anien":6603,"verbessern":6604,"##wan":6605,"offiziell":6606,"sr":6607,"möglichst":6608,"##open":6609,"ner":6610,"vize":6611,"##kreuz":6612,"ideen":6613,"justiz":6614,"sogenannte":6615,"##endes":6616,"kanton":6617,"##tigte":6618,"integration":6619,"##ls":6620,"andererseits":6621,"##deln":6622,"##:17":6623,"hit":6624,"misch":6625,"ägyp":6626,"fehlen":6627,"spiegel":6628,"umsatz":6629,"vorhaben":6630,"brücke":6631,"betont":6632,"villa":6633,"diente":6634,"freiheit":6635,"teams":6636,"farbe":6637,"weitgehend":6638,"##kopf":6639,"wirksam":6640,"gefahren":6641,"leon":6642,"##meisterschaften":6643,"mol":6644,"##üne":6645,"##umb":6646,"gelegenheit":6647,"ret":6648,"sage":6649,"arab":6650,"##ätter":6651,"ram":6652,"##ican":6653,"##nitz":6654,"beschluss":6655,"##skon":6656,"##lag":6657,"belg":6658,"##ih":6659,"fri":6660,"höchsten":6661,"1930":6662,"+49":6663,"webs":6664,"herrschaft":6665,"hon":6666,"rumän":6667,"##versicherung":6668,"protest":6669,"braun":6670,"10,":6671,"##züge":6672,"motiv":6673,"zählen":6674,"##:02":6675,"##:03":6676,"##rot":6677,"##wel":6678,"##bliothek":6679,"zweifel":6680,"stür":6681,"schwierig":6682,"##ky":6683,"##ria":6684,"hi":6685,"orte":6686,"bekommt":6687,"zweiter":6688,"oct":6689,"spitze":6690,"##tigten":6691,"harr":6692,"anwesen":6693,"gefä":6694,"betroffenen":6695,"##iller":6696,"##brauch":6697,"##bahnhof":6698,"how":6699,"messe":6700,"infrastruktur":6701,"ausschuß":6702,"jugendlichen":6703,"##universität":6704,"durchaus":6705,"pen":6706,"mc":6707,"wed":6708,"galt":6709,"##rate":6710,"##sphäre":6711,"##rom":6712,"##dels":6713,"traf":6714,"erleich":6715,"united":6716,"##wissenschaften":6717,"##2016":6718,"##innern":6719,"fak":6720,"1968":6721,"bul":6722,"dunkel":6723,"europe":6724,"##iguren":6725,"##gebiete":6726,"moderne":6727,"gebäu":6728,"##reffend":6729,"instrument":6730,"##anke":6731,"garan":6732,"##:21":6733,"echt":6734,"täter":6735,"gesprochen":6736,"geschäftsführer":6737,"##hf":6738,"geschen":6739,"##led":6740,"##ieur":6741,"##96":6742,"grab":6743,"##arn":6744,"##wirken":6745,"##cia":6746,"##vd":6747,"einzelne":6748,"refer":6749,"##isseur":6750,"##andenburg":6751,"rückkehr":6752,"terror":6753,"mod":6754,"##ode":6755,"##forum":6756,"brenn":6757,"experten":6758,"schatz":6759,"##hes":6760,"mond":6761,"sus":6762,"organisationen":6763,"##tien":6764,"38":6765,"##scheid":6766,"##grenzen":6767,"##isst":6768,"asyl":6769,"kommunikation":6770,"##ändische":6771,"##anda":6772,"bonn":6773,"##ckel":6774,"konzer":6775,"benutzt":6776,"roy":6777,"willkommen":6778,"opp":6779,"fordert":6780,"vermögen":6781,"angelegen":6782,"ausschusses":6783,"gering":6784,"sachen":6785,"##vollen":6786,"##:06":6787,"##hagen":6788,"##:14":6789,"##staats":6790,"37":6791,"##ÿÿ":6792,"überprü":6793,"##hofer":6794,"vierten":6795,"##:07":6796,"act":6797,"##amerikanischen":6798,"nic":6799,"##irn":6800,"kämpfen":6801,"##ón":6802,"##\").":6803,"##systeme":6804,"##zieren":6805,"dün":6806,"##deutsche":6807,"##leistungs":6808,"##brei":6809,"##agte":6810,"facebook":6811,"##pal":6812,"aspe":6813,"beweg":6814,"exp":6815,"##04.":6816,"ye":6817,"##ählten":6818,"bedürf":6819,"##ädag":6820,"##–18":6821,"##delt":6822,"steuern":6823,"beur":6824,"csu":6825,"rosen":6826,"fördern":6827,"erklären":6828,"##institut":6829,"line":6830,"##wohnung":6831,"##&#252;":6832,"hc":6833,"eure":6834,"##erien":6835,"##östlich":6836,"eindruck":6837,"##steiger":6838,"##:16":6839,"##gert":6840,"##nor":6841,"prüf":6842,"lief":6843,"##:13":6844,"schnitt":6845,"herzog":6846,"##lau":6847,"##wal":6848,"##ehrt":6849,"##amerika":6850,"massen":6851,"albert":6852,"##/-/-":6853,"berichtete":6854,"beteiligung":6855,"ritter":6856,"6,":6857,"geöff":6858,"##atischen":6859,"landschaft":6860,"##eitern":6861,"jesus":6862,"##prüfung":6863,"##kontro":6864,"##zenz":6865,"##brücke":6866,"freude":6867,"treten":6868,"ewg":6869,"##/?":6870,"vertrau":6871,"##col":6872,"eingestellt":6873,"verpflichtet":6874,"schreibt":6875,"staffel":6876,"##bald":6877,"wom":6878,"##ado":6879,"##arbeits":6880,"ss":6881,"tourismus":6882,"kä":6883,"##artikel":6884,"##ähler":6885,"wechs":6886,"##familie":6887,"fün":6888,"dé":6889,"##&#228;":6890,"vic":6891,"##ürgen":6892,"1933":6893,"studio":6894,"verlauf":6895,"nachge":6896,"nachfrage":6897,"schriftsteller":6898,"preuß":6899,"##inar":6900,"zweimal":6901,"versand":6902,"##nicht":6903,"##isen":6904,"##ax":6905,"##fällen":6906,"##zellen":6907,"##hlung":6908,"##artige":6909,"##42":6910,"diesmal":6911,"genießen":6912,"sodass":6913,"##alerie":6914,"##arts":6915,"##bauer":6916,"erinnern":6917,"event":6918,"##kmale":6919,"##finanz":6920,"##klus":6921,"##krit":6922,"diskussion":6923,"##äusern":6924,"hilfs":6925,"##ourcen":6926,"##falen":6927,"mittels":6928,"##bm":6929,"lieb":6930,"vollen":6931,"##haften":6932,"##üch":6933,"##utzung":6934,"##felder":6935,"award":6936,"##ämpfung":6937,"##karten":6938,"##:40":6939,"geeignet":6940,"##:23":6941,"hall":6942,"falle":6943,"##spir":6944,"fla":6945,"anzeige":6946,"##namen":6947,"##uellen":6948,"multi":6949,"##management":6950,"zucker":6951,"brauche":6952,"##:08":6953,"kaffee":6954,"##hias":6955,"gerät":6956,"1971":6957,"schlä":6958,"behaup":6959,"##öder":6960,"schwierigkeiten":6961,"mathem":6962,"##93":6963,"##pft":6964,"bessere":6965,"##unken":6966,"##ogle":6967,"##berech":6968,"cast":6969,"##stete":6970,"unterschiedlich":6971,"##:22":6972,"sonstige":6973,"wesentlich":6974,"dresden":6975,"##indet":6976,"bio":6977,"gül":6978,"cre":6979,"beamten":6980,"vorschläge":6981,"deswegen":6982,"##neter":6983,"##02.":6984,"##fess":6985,"##iode":6986,"##car":6987,"##mil":6988,"##ütte":6989,"##blog":6990,"optim":6991,"##achter":6992,"aktien":6993,"sammlung":6994,"##spekt":6995,"##machen":6996,"dynam":6997,"bereiche":6998,"dialog":6999,"hessen":7000,"bezü":7001,"##äume":7002,"##:09":7003,"hard":7004,"anb":7005,"##dungen":7006,"##deutschen":7007,"##:50":7008,"##eir":7009,"schneller":7010,"nachw":7011,"##osen":7012,"##einheit":7013,"(4)":7014,"##wood":7015,"gebiete":7016,"handeln":7017,"ries":7018,"##-10":7019,"##vide":7020,"##mes":7021,"press":7022,"gez":7023,"afd":7024,"regelung":7025,"öffnen":7026,"##:18":7027,"kri":7028,"sper":7029,"##cal":7030,"tatsache":7031,"##österreich":7032,"beziehung":7033,"minder":7034,"##ziger":7035,"##yle":7036,"hom":7037,"jugendliche":7038,"##hörigen":7039,"bör":7040,"##höhe":7041,"sebast":7042,"forst":7043,"westlich":7044,"schließen":7045,"jac":7046,"apartment":7047,"reihen":7048,"##richter":7049,"engel":7050,"##ichter":7051,"##pper":7052,"##isa":7053,"##hotel":7054,"hierbei":7055,"belast":7056,"verstanden":7057,"nötig":7058,"heiratete":7059,"2010,":7060,"östlich":7061,"auftritt":7062,"rathaus":7063,"unternehmer":7064,"priester":7065,"##bit":7066,"protokoll":7067,"zeugen":7068,"##handels":7069,"##funktion":7070,"##einer":7071,"festival":7072,"1940":7073,"nort":7074,"##ulation":7075,"##figur":7076,"erhöht":7077,"##schei":7078,"##);":7079,"lieben":7080,"##stätten":7081,"##ace":7082,"blumen":7083,"vorsitzende":7084,"ungarn":7085,"funktioniert":7086,"mund":7087,"##emit":7088,"##falt":7089,"papst":7090,"schweren":7091,"##abi":7092,"##abeth":7093,"risiko":7094,"well":7095,"gefängnis":7096,"geräte":7097,"##stock":7098,"hoffe":7099,"##künfte":7100,"miner":7101,"erhoben":7102,"##auso":7103,"langfrist":7104,"stich":7105,"teilte":7106,"holen":7107,"kub":7108,"lohn":7109,"##ungsmittel":7110,"##/02":7111,"überwiegend":7112,"erweiterung":7113,"höhen":7114,"nennt":7115,"##ani":7116,"##konferenz":7117,"##:25":7118,"programme":7119,"##stags":7120,"##/2015":7121,"erstellt":7122,"fotograf":7123,"##gin":7124,"##werken":7125,"44":7126,"damen":7127,"##bd":7128,"##auben":7129,"##issar":7130,"befrei":7131,"gezogen":7132,"##wl":7133,"dör":7134,"1969":7135,"##arren":7136,"##pul":7137,"fehlt":7138,"planung":7139,"höchste":7140,"##modell":7141,"(00":7142,"konsequ":7143,"schwerpunkt":7144,"gewerbe":7145,"architektur":7146,"mrd":7147,"##problem":7148,"##urz":7149,"pflicht":7150,"gal":7151,"##einrichtungen":7152,"##ßte":7153,"städten":7154,"##wp":7155,"##aben":7156,"tab":7157,"akzep":7158,"##bauen":7159,"modernen":7160,"##63":7161,"fahrt":7162,"produziert":7163,"..":7164,"##ialien":7165,"bewohner":7166,"##ous":7167,"human":7168,"49":7169,"##\":\"":7170,"beh":7171,"bewertung":7172,"nahezu":7173,"wolle":7174,"speziell":7175,"deutschlands":7176,"600":7177,"##')":7178,"play":7179,"##ension":7180,"einzigen":7181,"##aktionen":7182,"auftreten":7183,"festgelegt":7184,"extra":7185,"häuser":7186,"##landes":7187,"##ernen":7188,"##otion":7189,"##wege":7190,"##ährung":7191,"##euung":7192,"##bilder":7193,"##brand":7194,"##vt":7195,"tru":7196,"##wahlen":7197,"schwarzen":7198,"urlaub":7199,"##gol":7200,"wü":7201,"demnach":7202,"markus":7203,"ergibt":7204,"##klar":7205,"##steurop":7206,"2015,":7207,"si":7208,"aufsicht":7209,"teils":7210,"stattfinden":7211,"folgten":7212,"turnier":7213,"verändert":7214,"##wä":7215,"gebieten":7216,"vorgeschlagen":7217,"##schef":7218,"gang":7219,"schnei":7220,"berichte":7221,"betreffend":7222,"##schlüsse":7223,"entwurf":7224,"##cb":7225,"interview":7226,"##kommt":7227,"darstellung":7228,"##orten":7229,"school":7230,"fant":7231,"angekl":7232,"vorteile":7233,"willen":7234,"genauso":7235,"festge":7236,"##:59":7237,"##ppt":7238,"akademie":7239,"##eck":7240,"##zusetzen":7241,"linien":7242,"plötzlich":7243,"##rolle":7244,"generated":7245,"##jahre":7246,"bord":7247,"günstige":7248,"bauen":7249,"sieger":7250,"##cz":7251,"##athl":7252,"hoffnung":7253,"britische":7254,"anbie":7255,"schles":7256,"bestehenden":7257,"gegenwär":7258,"tit":7259,"##ris":7260,"##:26":7261,"werner":7262,"##/2":7263,"gedacht":7264,"akte":7265,"48":7266,"herunter":7267,"persönlich":7268,"##greifen":7269,"eigenes":7270,"abgeordneten":7271,"reserv":7272,"ce":7273,"##westlich":7274,"prior":7275,"##kunst":7276,"##nehmern":7277,"trend":7278,"##dlich":7279,"ständig":7280,"einiger":7281,"##ausbildung":7282,"03.":7283,"kürz":7284,"fernsehen":7285,"kolon":7286,"kanada":7287,"jünger":7288,"2006,":7289,"##stil":7290,"wirken":7291,"konserv":7292,"betrachtet":7293,"fle":7294,"blu":7295,"##pret":7296,"zusatz":7297,"grei":7298,"##itur":7299,"durchschnit":7300,"##ammer":7301,"zenti":7302,"##isieren":7303,"tue":7304,"##quote":7305,"beschluß":7306,"##orfen":7307,"##geschrieben":7308,"##67":7309,"untersuchungen":7310,"sauer":7311,"##rel":7312,"familienname":7313,"iran":7314,"partie":7315,"party":7316,"erscheinen":7317,"lebte":7318,"phase":7319,"##qualität":7320,"zentrale":7321,"##cycl":7322,"voller":7323,"benutzer":7324,"##mäch":7325,"mail":7326,"##ichert":7327,"stolz":7328,"front":7329,"##pra":7330,"bund":7331,"freie":7332,"##vp":7333,"schaffung":7334,"##ket":7335,"##beit":7336,"##:33":7337,"armen":7338,"soweit":7339,"##kop":7340,"##istenz":7341,"##körper":7342,"machst":7343,"nationals":7344,"bol":7345,"##hebung":7346,"austral":7347,"golf":7348,"##fuß":7349,"vergeben":7350,"lokalen":7351,"##chtet":7352,"organisiert":7353,"kohle":7354,"##,00":7355,"##68":7356,"##eiteten":7357,"strecken":7358,"englischen":7359,"regionalen":7360,"eindeu":7361,"gegangen":7362,"herkunft":7363,"fon":7364,"##:24":7365,"42":7366,"##gers":7367,"staatsanwalt":7368,"##:28":7369,"college":7370,"##wettbewer":7371,"##analy":7372,"jens":7373,"inseln":7374,"veran":7375,"##stimmen":7376,"##ved":7377,"reser":7378,"##hoff":7379,"##lor":7380,"##91":7381,"statistik":7382,"##rock":7383,"1938":7384,"bayerischen":7385,"bundesrepublik":7386,"hinein":7387,"##other":7388,"##lli":7389,"zahn":7390,"erfüllt":7391,"##schiede":7392,"##,\"":7393,"##geleitet":7394,"völker":7395,"fahrrad":7396,"##5/":7397,"kenne":7398,"anfangs":7399,"angesehen":7400,"vill":7401,"germany":7402,"anhand":7403,"##ologe":7404,"gründe":7405,"finanzielle":7406,"spür":7407,"erstre":7408,"##ston":7409,"##/04":7410,"##iness":7411,"scheiße":7412,"aufs":7413,"moskau":7414,"sab":7415,"hände":7416,"##mung":7417,"##ohlen":7418,"unbedingt":7419,"australien":7420,"##seits":7421,"##gerichts":7422,"##ingend":7423,"zunehmend":7424,"gün":7425,"naturschutz":7426,"genü":7427,"##ced":7428,"cat":7429,"austausch":7430,"##kammer":7431,"feiern":7432,"##)\"":7433,"##reform":7434,"##amerikanischer":7435,"worte":7436,"seconds":7437,"##:35":7438,"1939":7439,"##dex":7440,"##kungen":7441,"heutige":7442,"##strom":7443,"island":7444,"ref":7445,"##dungs":7446,"kra":7447,"##ined":7448,"toten":7449,"nationen":7450,"##spiegel":7451,"##ausschusses":7452,"##ji":7453,"nt":7454,"mur":7455,"ört":7456,"##annter":7457,"##oth":7458,"hund":7459,"##attform":7460,"##bb":7461,"sebastian":7462,"##dro":7463,"##ckten":7464,"##dok":7465,"methoden":7466,"gegensei":7467,"mannschaften":7468,"anerkennung":7469,"geprägt":7470,"(10":7471,"##ois":7472,"##ädagog":7473,"##chnungs":7474,"männern":7475,"cent":7476,"legt":7477,"##vereins":7478,"ip":7479,"drittel":7480,"site":7481,"vin":7482,"##92":7483,"kart":7484,"rollen":7485,"argen":7486,"##rück":7487,"geöffnet":7488,"trug":7489,"nieders":7490,"fit":7491,"##öse":7492,"##pri":7493,"##:31":7494,"sturm":7495,"betonte":7496,"##nieder":7497,"##fraktion":7498,"reaktion":7499,"spekt":7500,"##:29":7501,"##wes":7502,"river":7503,"##äck":7504,"download":7505,"nn":7506,"erfolgen":7507,"niederlande":7508,"kompeten":7509,"##izei":7510,"töten":7511,"admin":7512,"fass":7513,"repar":7514,"pak":7515,"##terie":7516,"hoher":7517,"##:34":7518,"training":7519,"verfügen":7520,"bewe":7521,"##ouver":7522,"griff":7523,"möglichen":7524,"##lers":7525,"if":7526,"geför":7527,"vertrieb":7528,"schwere":7529,"##azin":7530,"##atische":7531,"##ocken":7532,"wandel":7533,"rt":7534,"black":7535,"sorg":7536,"beschäd":7537,"übersch":7538,"pläne":7539,"##ora":7540,"##motor":7541,"nachricht":7542,"länd":7543,"wag":7544,"43":7545,"träger":7546,"umgeben":7547,"wichtigste":7548,"##án":7549,"##denk":7550,"##dauer":7551,"intensiv":7552,"##führte":7553,"eurostat":7554,"##üben":7555,"##bacher":7556,"meeres":7557,"mindest":7558,"lösungen":7559,"verlei":7560,"orgel":7561,"klicken":7562,"##ween":7563,"schre":7564,"freizeit":7565,"##weiten":7566,"finanziellen":7567,"antworten":7568,"##ruhe":7569,"persönlichen":7570,"niemals":7571,"strategie":7572,"##sprung":7573,"mitgliedern":7574,"zugriffe":7575,"##version":7576,"konzern":7577,"berücksichtigt":7578,"varian":7579,"ele":7580,"##strate":7581,"vorteil":7582,"kleines":7583,"##ards":7584,"deiner":7585,"staatlichen":7586,"plus":7587,"sed":7588,"hundert":7589,"##stuhl":7590,"1.3.":7591,"##stär":7592,"##ith":7593,"##/09":7594,"pau":7595,"##empl":7596,"erweitert":7597,"jungs":7598,"##cus":7599,"vorbereitung":7600,"##geräte":7601,"##ams":7602,"fjo":7603,"eingeb":7604,"grundsätzlich":7605,"zugunsten":7606,"##itor":7607,"bisherigen":7608,"höhere":7609,"spielzeit":7610,"##bene":7611,"##ämpf":7612,"south":7613,"rechnung":7614,"mem":7615,"##:56":7616,"##ernt":7617,"##new":7618,"gelegt":7619,"wünschen":7620,"##&#10;":7621,"##gy":7622,"aufstieg":7623,"##xi":7624,"##ünden":7625,"##komp":7626,"##atisch":7627,"ti":7628,"draußen":7629,"sad":7630,"systems":7631,"##brü":7632,"##mack":7633,"##behörde":7634,"hem":7635,"##württemberg":7636,"1944":7637,"##ächer":7638,"regie":7639,"atom":7640,"startseite":7641,"feder":7642,"institution":7643,"##istin":7644,"##verteid":7645,"mögliche":7646,"##/07/16":7647,"bewegen":7648,"##:54":7649,"infolge":7650,"hilft":7651,"##wirkung":7652,"##:44":7653,"##engl":7654,"##nel":7655,"flucht":7656,"2009,":7657,"##ctor":7658,"breiten":7659,"teufel":7660,"effizien":7661,"friedhof":7662,"leer":7663,"##nü":7664,"gehörten":7665,"2005,":7666,"##anzer":7667,"benach":7668,"tarif":7669,"##täu":7670,"##ulen":7671,"##heben":7672,"wiederauf":7673,"bedien":7674,"##lt":7675,"ruhig":7676,"hinweise":7677,"premier":7678,"aufenthalt":7679,"##:27":7680,"bulgar":7681,"südlichen":7682,"##kommun":7683,"##:42":7684,"sorge":7685,"rh":7686,"##97":7687,"präsentiert":7688,"##krieg":7689,"geträn":7690,"1967":7691,"over":7692,"kurzen":7693,"ausfuhr":7694,"##tragung":7695,"##fertigt":7696,"7,":7697,"dol":7698,"charles":7699,"##istan":7700,"eingang":7701,"beschäftigungs":7702,"beschäftigten":7703,"##:55":7704,"fälle":7705,"fi":7706,"hört":7707,"berufen":7708,"aussicht":7709,"bun":7710,"führten":7711,"##nur":7712,"##sdorf":7713,"beschwerde":7714,"verfassungs":7715,"beiträge":7716,"##ischt":7717,"statist":7718,"kongress":7719,"verlieren":7720,"kanad":7721,"afr":7722,"info":7723,"##otten":7724,"##gä":7725,"geschlecht":7726,"##kep":7727,"sobald":7728,"##wies":7729,"zeitschrift":7730,"##könig":7731,"##sberg":7732,"ausgleich":7733,"##otoren":7734,"etabl":7735,"abwei":7736,"##61":7737,"jos":7738,"teilnehmen":7739,"##astrop":7740,"##ftig":7741,"eröffnung":7742,"keller":7743,"artikels":7744,"##hler":7745,"41":7746,"##ey":7747,"erschein":7748,"##las":7749,"##viertel":7750,"banken":7751,"versuchte":7752,"up":7753,"christoph":7754,"##grad":7755,"bezüglich":7756,"##:39":7757,"deinem":7758,"eck":7759,"##bogen":7760,"kie":7761,"##:41":7762,"##ami":7763,"abstimmung":7764,"indien":7765,"dargestellt":7766,"jene":7767,"bevölkerungs":7768,"verläuft":7769,"jürgen":7770,"more":7771,"##sträger":7772,"festgestellt":7773,"##aa":7774,"wuchs":7775,"unterkunft":7776,"meint":7777,"master":7778,"gep":7779,"interessiert":7780,"glie":7781,"verringer":7782,"meisterschaft":7783,"barcel":7784,"erzb":7785,"##spf":7786,"##/0/":7787,"kooperation":7788,"ursprung":7789,"##:43":7790,"korre":7791,"offenen":7792,"verboten":7793,"##nh":7794,"##instr":7795,"stattdessen":7796,"zuk":7797,"jon":7798,"##ütze":7799,"empfohlen":7800,"##feuer":7801,"hinweis":7802,"aufgestellt":7803,"historische":7804,"##:36":7805,"ns":7806,"erfr":7807,"runter":7808,"diag":7809,"##pi":7810,"##ony":7811,"mauer":7812,"verurteilt":7813,"##fang":7814,"verliehen":7815,"##ässlich":7816,"##rüstung":7817,"besei":7818,"##betr":7819,"##äufe":7820,"##uther":7821,"pc":7822,"##van":7823,"##ords":7824,"800":7825,"1964":7826,"ausgang":7827,"##ption":7828,"##viel":7829,"generation":7830,"ehemaliger":7831,"vorgehen":7832,"erneuer":7833,"widerstand":7834,"##maßen":7835,"##jor":7836,"retten":7837,"jakob":7838,"mäch":7839,"##fh":7840,"tha":7841,"##98":7842,"##mess":7843,"##uplo":7844,"lande":7845,"##:32":7846,"katalog":7847,"##stoffen":7848,"alleine":7849,"~":7850,"erfüllen":7851,"erober":7852,"salzburg":7853,"##stehenden":7854,"institutionen":7855,"−":7856,"##metho":7857,"##ender":7858,"lot":7859,"##rand":7860,"poly":7861,"news":7862,"berichter":7863,"vorbe":7864,"westlichen":7865,"##bauten":7866,"details":7867,"formul":7868,"mittelmeer":7869,"thür":7870,"süda":7871,"vaters":7872,"webseite":7873,"überzeugt":7874,"##cess":7875,"street":7876,"##:52":7877,"##ros":7878,"##rum":7879,"##weiß":7880,"center":7881,"pfarrer":7882,"solcher":7883,"##eins":7884,"belegte":7885,"##owski":7886,"##rd":7887,"afrika":7888,"##500":7889,"##agentur":7890,"##stab":7891,"benötigt":7892,"##:57":7893,"(7":7894,"nürnberg":7895,"##produkte":7896,"##%)":7897,"hängt":7898,"(18":7899,"aufmerksamkeit":7900,"schlafzimmer":7901,"debatte":7902,"sämtliche":7903,"##lim":7904,"deleg":7905,"erleben":7906,"blieben":7907,"##ship":7908,"##schwer":7909,"konkurrenz":7910,"##mmer":7911,"1946":7912,"louis":7913,"schönen":7914,"angemessen":7915,"##schlagen":7916,"##ree":7917,"##ela":7918,"group":7919,"erhältlich":7920,"##:51":7921,"schil":7922,"##arzt":7923,"überleben":7924,"mexiko":7925,"##asp":7926,"##pool":7927,"gir":7928,"##zn":7929,"##jt":7930,"##bart":7931,"##dach":7932,"abi":7933,"##ente":7934,"-20":7935,"anhang":7936,"verwirk":7937,"kiel":7938,"bob":7939,"##adr":7940,"prag":7941,"schiffe":7942,"##ussen":7943,"höheren":7944,"##:58":7945,"besie":7946,"##:48":7947,"##zugs":7948,"##fällig":7949,"bart":7950,"krei":7951,"vorgelegt":7952,"#1":7953,"oberen":7954,"##ffekt":7955,"datei":7956,"##lass":7957,"##essel":7958,"promov":7959,"arbeitsmarkt":7960,"##heil":7961,"etc":7962,"##git":7963,"##lat":7964,"verließ":7965,"##inne":7966,"##faßt":7967,"hoffen":7968,"##ipe":7969,"lösen":7970,"total":7971,"genehmigung":7972,"##:38":7973,"geblieben":7974,"##süd":7975,"##such":7976,"##ktes":7977,"##fangen":7978,"grat":7979,"wirkt":7980,"##preise":7981,"##rig":7982,"160":7983,"vorgänger":7984,"einerseits":7985,"##:37":7986,"richtigen":7987,"##info":7988,"brandenburg":7989,"auffassung":7990,"schnee":7991,"##prin":7992,"rekord":7993,"##aussch":7994,"autoren":7995,"##endar":7996,"mitge":7997,"one":7998,"kaliforn":7999,"130":8000,"machten":8001,"##leun":8002,"kle":8003,"älteren":8004,"house":8005,"norwegen":8006,"##spunkt":8007,"chron":8008,"##:46":8009,"ts":8010,"##auchs":8011,"einzigar":8012,"##aufrufe":8013,"##:53":8014,"aussage":8015,"regisseur":8016,"##publ":8017,"##oben":8018,"leitete":8019,"##ref":8020,"##ologen":8021,"klub":8022,"##gau":8023,"auge":8024,"##alem":8025,"##eus":8026,"startete":8027,"feiert":8028,"##indungen":8029,"##cer":8030,"innenstadt":8031,"bm":8032,"##rh":8033,"voraussetzungen":8034,"46":8035,">>":8036,"archiv":8037,"zut":8038,"##quar":8039,"##gliedert":8040,"quart":8041,"geburtstag":8042,"1965":8043,"restaurants":8044,"ly":8045,"verkaufen":8046,"entsteht":8047,"##gebir":8048,"##boden":8049,"jedenfalls":8050,"freundin":8051,"untersucht":8052,"ess":8053,"##rennen":8054,"##content":8055,"voe":8056,"##:49":8057,"0.0":8058,"##iertes":8059,"##äub":8060,"wirkte":8061,"ausgetragen":8062,"##lings":8063,"gran":8064,"hamburger":8065,"hung":8066,"##ack":8067,"##geht":8068,"wach":8069,"##mension":8070,"betriebe":8071,"##män":8072,"ski":8073,"pflanz":8074,"##kämp":8075,"##äischen":8076,"##tour":8077,"aktionen":8078,"single":8079,"##rates":8080,"versuche":8081,"interpret":8082,"1966":8083,"flüchtlinge":8084,"##ener":8085,"##page":8086,"dj":8087,"gefragt":8088,"##spruchs":8089,"##kle":8090,"##tiere":8091,"frucht":8092,"##sky":8093,"##fé":8094,"unseres":8095,"##schreiten":8096,"beihilfen":8097,"arbeitsplatz":8098,"automobil":8099,"netzwerk":8100,"##partement":8101,"nachmittag":8102,"schmal":8103,"lautet":8104,"##iki":8105,"versehen":8106,"heer":8107,"lind":8108,"##deutsch":8109,"million":8110,"##räumen":8111,"##baus":8112,"##zell":8113,"erzähl":8114,"##hme":8115,"mun":8116,"##immobili":8117,"bisch":8118,"subst":8119,"but":8120,"atmo":8121,"##mitte":8122,"schmidt":8123,"spanischen":8124,"funktionen":8125,"ingen":8126,"##antin":8127,"starten":8128,"tags":8129,"gehabt":8130,"8,":8131,"vermeiden":8132,"joined":8133,"sg":8134,"##reihe":8135,"sorgt":8136,"karls":8137,"number":8138,"##verlag":8139,"hilf":8140,"##put":8141,"besitzen":8142,"##noten":8143,"have":8144,"eh":8145,"##kinder":8146,"jagd":8147,"systeme":8148,"begleitet":8149,"flügel":8150,"##vertr":8151,"##steigen":8152,"140":8153,"##arbeitern":8154,"##tran":8155,"##sor":8156,"brüder":8157,"komfort":8158,"veränderung":8159,"boot":8160,"mittleren":8161,"bos":8162,"gewissen":8163,"seiteaufrufe":8164,"zusammenge":8165,"münchner":8166,"demokratie":8167,"##hten":8168,"##flügel":8169,"ee":8170,"##fähig":8171,"geschwindigkeit":8172,"ließen":8173,"##mün":8174,"##zesse":8175,"zukünf":8176,"##teilungen":8177,"francis":8178,"staatliche":8179,"verstehe":8180,"(201":8181,"verschiedener":8182,"2011,":8183,"##öch":8184,"##--":8185,"aufgebaut":8186,"stoff":8187,"beendet":8188,"##stoßen":8189,"hauses":8190,"erzählen":8191,"selbstverständ":8192,"barcelona":8193,"verlust":8194,"music":8195,"verstärkt":8196,"##urer":8197,"tsv":8198,"optimal":8199,"verfahrens":8200,"##risten":8201,"##zwe":8202,"zuständigen":8203,"##:47":8204,"1961":8205,"##pass":8206,"ermittelt":8207,"##eller":8208,"##llung":8209,"gleichnam":8210,"ned":8211,"##handeln":8212,"##vater":8213,"inneren":8214,"##rein":8215,"##anner":8216,"##barer":8217,"politisch":8218,"cu":8219,"mön":8220,"madrid":8221,"regionale":8222,"koll":8223,"matthias":8224,"gearbeitet":8225,"einkauf":8226,"blatt":8227,"hervorragen":8228,"##usive":8229,"##etts":8230,"##arte":8231,"##erer":8232,"gebildet":8233,"religi":8234,"##......":8235,"eigenschaften":8236,"##bnis":8237,"obst":8238,"donald":8239,"treu":8240,"beziehungs":8241,"landtags":8242,"lebten":8243,"ec":8244,"##ader":8245,"nied":8246,"1963":8247,"gattung":8248,"arn":8249,"patent":8250,"ue":8251,"vorgestellt":8252,"angekünd":8253,"darm":8254,"##konstru":8255,"##tex":8256,"elemente":8257,"volle":8258,"aspekte":8259,"währungs":8260,"##rs":8261,"maschine":8262,"##img":8263,"filme":8264,"welchen":8265,"##folg":8266,"able":8267,"##deb":8268,"##hockey":8269,"glücklich":8270,"##trainer":8271,"benutzen":8272,"##pfe":8273,"##eiert":8274,"##endorf":8275,"1962":8276,"klinik":8277,"##ants":8278,"##dorfer":8279,"gelungen":8280,"95":8281,"verdammt":8282,"google":8283,"vielzahl":8284,"letztlich":8285,"ot":8286,"krankheit":8287,"fährt":8288,"längst":8289,"##bv":8290,"##dh":8291,"##jan":8292,"##sid":8293,"mitten":8294,"marken":8295,"tausende":8296,"##anteil":8297,"##well":8298,"zy":8299,"##%3":8300,"flugzeug":8301,"##sol":8302,"aussehen":8303,"##bor":8304,"argentin":8305,"katholischen":8306,"riesen":8307,"entspann":8308,"lagen":8309,"beweis":8310,"beendete":8311,"hierzu":8312,"verdien":8313,"##ppel":8314,"cir":8315,"eingeladen":8316,"##ütter":8317,"##orts":8318,"##würfe":8319,"hekt":8320,"modern":8321,"##eitungs":8322,"##digen":8323,"##pfer":8324,"##zeugnisse":8325,"##eme":8326,"##tä":8327,"##stür":8328,"##kes":8329,"fürst":8330,"##air":8331,"status":8332,"ron":8333,"zin":8334,"##sied":8335,"müssten":8336,"konzep":8337,"##qual":8338,"##start":8339,"##kamp":8340,"##furter":8341,"manager":8342,"##ota":8343,"vereine":8344,"objekte":8345,"archä":8346,"##einsatz":8347,"gib":8348,"wohnen":8349,"alp":8350,"sauber":8351,"einfache":8352,"##fahrzeuge":8353,"gewün":8354,"##bal":8355,"prüfen":8356,"klim":8357,"offensichtlich":8358,"parkplatz":8359,"##aw":8360,"big":8361,"mangel":8362,"##pun":8363,"seg":8364,"##üse":8365,"##systems":8366,"##sprozess":8367,"##glas":8368,"##älte":8369,"marke":8370,"dran":8371,"abt":8372,"##einkommen":8373,"drin":8374,"##tiven":8375,"küste":8376,"##leute":8377,"heißen":8378,"##fal":8379,"##auten":8380,"finnland":8381,"##stiftung":8382,"weisen":8383,"verbreitet":8384,"ressourcen":8385,"europäischer":8386,"1,5":8387,"strateg":8388,"kapaz":8389,"erhielten":8390,"szene":8391,"##platten":8392,"she":8393,"erheblich":8394,"gegend":8395,"betreffenden":8396,"##vir":8397,"blüten":8398,"mitgliedstaat":8399,"spenden":8400,"##album":8401,"lieder":8402,"intelligen":8403,"niederlanden":8404,"-20%":8405,"##iano":8406,"treffer":8407,"cop":8408,"adresse":8409,"diejenigen":8410,"fremden":8411,"strukturen":8412,"##stücke":8413,"stift":8414,"identifiz":8415,"ban":8416,"##achim":8417,"##bereiche":8418,"1948":8419,"selbständ":8420,"##ärm":8421,"kombination":8422,"##phase":8423,"##öss":8424,"##ätzung":8425,"erbaut":8426,"maße":8427,"##iste":8428,"rap":8429,"tätigkeiten":8430,"niederlage":8431,"##agten":8432,"ergänzt":8433,"‚":8434,"##emann":8435,"1958":8436,"selber":8437,"söhne":8438,"##hörige":8439,"küsten":8440,"nachwuchs":8441,"simon":8442,"jüngsten":8443,"niveau":8444,"illeg":8445,"##can":8446,"##phan":8447,"berichten":8448,"##endeten":8449,"besatz":8450,"##streit":8451,"##bleiben":8452,"##histor":8453,"gemeinderat":8454,"##eten":8455,"enttäu":8456,"dortmund":8457,"verständnis":8458,"kamera":8459,"##unterricht":8460,"wodurch":8461,"##umin":8462,"steigt":8463,"prote":8464,"franken":8465,"philosophie":8466,"##/2014":8467,"fok":8468,"##hofen":8469,"nutzer":8470,"sitzt":8471,"##gesellschaften":8472,"endete":8473,"##sur":8474,"pause":8475,"dram":8476,"vorne":8477,"##prozess":8478,"erkrank":8479,"##aß":8480,"serien":8481,"##baden":8482,"##gm":8483,"exempl":8484,"verh":8485,"##präsidenten":8486,"erzielt":8487,"gestorben":8488,"objekt":8489,"north":8490,"amerika":8491,"repräsent":8492,"abger":8493,"##gler":8494,"architekten":8495,"alpen":8496,"many":8497,"vorgenommen":8498,"vorjahr":8499,"innovation":8500,"##ail":8501,"solle":8502,"ähnliche":8503,"freiburg":8504,"##istent":8505,"##phone":8506,"analys":8507,"besucht":8508,"1956":8509,"##rät":8510,"arz":8511,"liebl":8512,"pier":8513,"cup":8514,"kandidaten":8515,"vorstellen":8516,"perspe":8517,"##62":8518,"american":8519,"##boot":8520,"vielmehr":8521,"01.":8522,"forderte":8523,"entwicklungen":8524,"##korb":8525,"zeug":8526,"##schaffung":8527,"##typ":8528,"##intern":8529,"kino":8530,"erhöhen":8531,"##etung":8532,"##iana":8533,"##stimmungen":8534,"meines":8535,"balkon":8536,"meinte":8537,"##graben":8538,"französisch":8539,"##initi":8540,"##mir":8541,"##rages":8542,"##immern":8543,"1952":8544,"##bilden":8545,"##ichtung":8546,"##werten":8547,"anschließen":8548,"physik":8549,"##angebot":8550,"praktisch":8551,"##ographie":8552,"bam":8553,"twitter":8554,"coun":8555,"ansatz":8556,"##deckt":8557,"fliegen":8558,"stö":8559,"##pn":8560,"rent":8561,"##/01/17":8562,"1949":8563,"gebur":8564,"##orie":8565,"##skr":8566,"hunde":8567,"views":8568,"bestandteil":8569,"arbeitslosen":8570,"##gemeinden":8571,"##iction":8572,"division":8573,"tennis":8574,"##kern":8575,"tiefe":8576,"##eise":8577,"befest":8578,"befehl":8579,"führer":8580,"##brig":8581,"schein":8582,"##vs":8583,"##kolle":8584,"schlimm":8585,"worten":8586,"beraten":8587,"erworben":8588,"überrasch":8589,"##ij":8590,"verstorben":8591,"52":8592,"inf":8593,"##ouverne":8594,"##ßert":8595,"option":8596,"formel":8597,"besitzer":8598,"##straßen":8599,"##sprachen":8600,"späte":8601,"siehst":8602,"dienste":8603,"##zeichnungen":8604,"anne":8605,"alternative":8606,"äußerst":8607,"wasch":8608,"nannte":8609,"##sender":8610,"bezahlen":8611,"##/3":8612,"gebiets":8613,"gü":8614,"ads":8615,"2020":8616,"elis":8617,"schauen":8618,"##einheiten":8619,"andr":8620,"##mas":8621,"gelangen":8622,"popul":8623,"##/5":8624,"54":8625,"##ugh":8626,"transpor":8627,"zentimeter":8628,"location":8629,"via":8630,"vieler":8631,"cy":8632,"##laufen":8633,"belegt":8634,"##artig":8635,"##stufe":8636,"##frü":8637,"polizisten":8638,"##uste":8639,"übrigens":8640,"labor":8641,"##attet":8642,"plätze":8643,"richtlinien":8644,"perfekt":8645,"##kehrt":8646,"unterschiede":8647,"##förderung":8648,"##eland":8649,"##freiheit":8650,"##weisung":8651,"bilanz":8652,"1919":8653,"fühlen":8654,"commun":8655,"schlug":8656,"business":8657,"##bürgermeister":8658,"eber":8659,"immerhin":8660,"gefällt":8661,"gestaltung":8662,"##ato":8663,"durchge":8664,"positive":8665,"##ln":8666,"großteil":8667,"1943":8668,"##fm":8669,"indi":8670,"##gesetzten":8671,"put":8672,"##strafe":8673,"spezielle":8674,"russische":8675,"##ray":8676,"schauspiel":8677,"zustimmung":8678,"##ault":8679,"sofern":8680,"gekauft":8681,"##ikationen":8682,"fritz":8683,"box":8684,"platten":8685,"dauern":8686,"getragen":8687,"fair":8688,"kleinere":8689,"frühere":8690,"##wh":8691,"use":8692,"##alender":8693,"##sä":8694,"gaben":8695,"nördlichen":8696,"##rak":8697,"brasilien":8698,"baut":8699,"smart":8700,"italienische":8701,"lokal":8702,"##aufnahme":8703,"##anzig":8704,"doktor":8705,"klavier":8706,"bä":8707,"ech":8708,"pul":8709,"##arischen":8710,"##fehlen":8711,"ehefrau":8712,"vorbild":8713,"traditionellen":8714,"botschaft":8715,"##grammen":8716,"relev":8717,"eigener":8718,"##paar":8719,"kölner":8720,"##gerät":8721,"laufenden":8722,"##ligisten":8723,"##best":8724,"##ird":8725,"##box":8726,"forum":8727,"renov":8728,"sha":8729,"ältere":8730,"bran":8731,"maximal":8732,"umben":8733,"##fung":8734,"hinten":8735,"##ätzt":8736,"##ging":8737,"ausgehen":8738,"erwart":8739,"wechseln":8740,"##pages":8741,"##arz":8742,"##ring":8743,"marine":8744,"##reicher":8745,"##urnier":8746,"jud":8747,"ungewöhn":8748,"##material":8749,"##................":8750,"rückt":8751,"rü":8752,"##fabrik":8753,"posten":8754,"süß":8755,"transfer":8756,"getrennt":8757,"mittelpunkt":8758,"##aue":8759,"spur":8760,"##ido":8761,"##archiv":8762,"##osa":8763,"ras":8764,"##nord":8765,"kim":8766,"##jh":8767,"##licherweise":8768,"##wandel":8769,"horst":8770,"##/11":8771,"51":8772,"here":8773,"##fas":8774,"glaubt":8775,"scheiter":8776,"wappen":8777,"maps":8778,"weshalb":8779,"##rufen":8780,"##born":8781,"##sprüche":8782,"##stimmt":8783,"trinken":8784,"##brechen":8785,"wahlen":8786,"sens":8787,"ast":8788,"warst":8789,"ident":8790,"##ille":8791,"1941":8792,"jubil":8793,"darlehen":8794,"##schten":8795,"1942":8796,"##entlich":8797,"kontinu":8798,"rote":8799,"verfolgt":8800,"flach":8801,"geplanten":8802,"##ids":8803,"##eim":8804,"##ridge":8805,"##leisten":8806,"##herren":8807,"\"\"":8808,"grä":8809,"##beginn":8810,"angebote":8811,"nav":8812,"1959":8813,"##rucken":8814,"##spartner":8815,"notwendigkeit":8816,"##wicklung":8817,"##usa":8818,"slowak":8819,"france":8820,"bestimmter":8821,"##mäßige":8822,"oster":8823,"##tend":8824,"getrei":8825,"##siden":8826,"##ettet":8827,"eich":8828,"2012,":8829,"##öm":8830,"between":8831,"##westfalen":8832,"ärzte":8833,"differ":8834,"kel":8835,"alli":8836,"schließt":8837,"einnahmen":8838,"##medaille":8839,"frisch":8840,"gerecht":8841,"gesper":8842,"##ktivität":8843,"##54":8844,"senioren":8845,"terrasse":8846,"##ili":8847,"##aku":8848,"1957":8849,"machine":8850,"##gast":8851,"##worfen":8852,"##king":8853,"präsent":8854,"opposition":8855,"##ez":8856,"haltung":8857,"eig":8858,"beziehungsweise":8859,"##uploads":8860,"##ozial":8861,"versicherungs":8862,"hektar":8863,"abhängig":8864,"beratung":8865,"pferde":8866,"##cur":8867,"##saison":8868,"bildete":8869,"##ghan":8870,"ll":8871,"sig":8872,"##ska":8873,"##/03/17":8874,"minim":8875,"##mie":8876,"kriterien":8877,"##ione":8878,"##esa":8879,"angeles":8880,"bundesregierung":8881,"##prom":8882,"beschreibt":8883,"##riz":8884,"##spolit":8885,"müll":8886,"##züg":8887,"grafen":8888,"##herz":8889,"##weiht":8890,"##mord":8891,"nordrhein":8892,"unterscheiden":8893,"element":8894,"krieges":8895,"ufer":8896,"vereinbarung":8897,"hl":8898,"stimmung":8899,"spitz":8900,"##ices":8901,"110":8902,"##erd":8903,"museums":8904,"methode":8905,"##ves":8906,"##onenten":8907,"##statter":8908,"##oker":8909,"verteilt":8910,"##><":8911,"kapelle":8912,"schal":8913,"##arkt":8914,"zentralen":8915,"##gewer":8916,"verdient":8917,"ausdrück":8918,"wohnungs":8919,"dll":8920,"rudolf":8921,"resp":8922,"##berlin":8923,"fremd":8924,"##onie":8925,"kenntnis":8926,"endet":8927,"##verkauf":8928,"finger":8929,"aufgeführt":8930,"170":8931,"##56":8932,"##tn":8933,"übert":8934,"##rahmen":8935,"informiert":8936,"hä":8937,"2013,":8938,"##ual":8939,"mic":8940,"bedeutend":8941,"verschl":8942,"rin":8943,"landtag":8944,"geschie":8945,"##lehnt":8946,"##ärten":8947,"##daktion":8948,"carol":8949,"brauch":8950,"tol":8951,"##mittlung":8952,"krist":8953,"schreib":8954,"que":8955,"tsch":8956,"gesetzes":8957,"##polizei":8958,"beziehen":8959,"persönliche":8960,"##eucht":8961,"##ometern":8962,"##mäßigen":8963,"satell":8964,"##bund":8965,"freut":8966,"enor":8967,"ral":8968,"##unen":8969,"offiziellen":8970,"##bestand":8971,"einheiten":8972,"##wortet":8973,"64":8974,"(')":8975,"##anstalt":8976,"##abgeord":8977,"##fleisch":8978,"##teuer":8979,"architekt":8980,"steiger":8981,"1918":8982,"##ged":8983,"ethn":8984,"saal":8985,"##nitten":8986,"gefördert":8987,"ursprünglichen":8988,"##ati":8989,"##welle":8990,"umgang":8991,"1953":8992,"jüdischen":8993,"plast":8994,"9,":8995,"vielfäl":8996,"beschleun":8997,"##stedt":8998,"spir":8999,"##zeuger":9000,"römischen":9001,"##vas":9002,"##eiß":9003,"sterne":9004,"##mmern":9005,"kümmer":9006,"vorläuf":9007,"##zentren":9008,"##/4":9009,"sit":9010,"schuss":9011,"##cor":9012,"rasch":9013,"gipfel":9014,"einstellung":9015,"compan":9016,"##okraten":9017,"erwarb":9018,"betrag":9019,"victor":9020,"##gebieten":9021,"mengen":9022,"neum":9023,"##gebnisse":9024,"##tim":9025,"solange":9026,"##wil":9027,"linke":9028,"bip":9029,"unteren":9030,"’":9031,"derzei":9032,"##sum":9033,"##antie":9034,"##luft":9035,"##beam":9036,"47":9037,"ermittlungen":9038,"##fg":9039,"automatisch":9040,"qualifikation":9041,"##ple":9042,"##-3":9043,"friedens":9044,"pic":9045,"##ights":9046,"sowjetunion":9047,"##organisationen":9048,"verbreitung":9049,"##riss":9050,"entfernung":9051,"passag":9052,"anpassung":9053,"##ahme":9054,"heidel":9055,"bestimmung":9056,"orten":9057,"angelegt":9058,"cle":9059,"##isierten":9060,"texte":9061,"aktiven":9062,"rats":9063,"mie":9064,"1947":9065,"##direktor":9066,"##liegt":9067,"beispiele":9068,"##schön":9069,"king":9070,"geschlagen":9071,"sound":9072,"##-200":9073,"(5)":9074,"##ichtete":9075,"##hab":9076,"##bre":9077,"##53":9078,"zugelassen":9079,"darstellen":9080,"register":9081,"ukraine":9082,"gestaltet":9083,"chemie":9084,"##etzten":9085,"unterrich":9086,"ry":9087,"##institu":9088,"debüt":9089,"drauf":9090,"tick":9091,"buchen":9092,"##reiter":9093,"##schwei":9094,"nachfol":9095,"entschließung":9096,"verbindungen":9097,"umgesetzt":9098,"##cent":9099,"gelb":9100,"##play":9101,"übersetzung":9102,"technologien":9103,"lig":9104,"##manns":9105,"pas":9106,"messer":9107,"zö":9108,"##59":9109,"übernahme":9110,"##besitz":9111,"##trans":9112,"wlan":9113,"wu":9114,"##händler":9115,"##aux":9116,"##übt":9117,"ums":9118,"passt":9119,"festlegung":9120,"edu":9121,"eib":9122,"abstand":9123,"schwarze":9124,"müsste":9125,"12,":9126,"craw":9127,"flüss":9128,"direkte":9129,"rab":9130,"bernhard":9131,"##partei":9132,"langer":9133,"gerhard":9134,"##beteil":9135,"abitur":9136,"brutt":9137,"kalifornien":9138,"1954":9139,"1955":9140,"lt":9141,"##zierte":9142,"modernis":9143,"textil":9144,"barbar":9145,"wissenschaftler":9146,"##ständigkeit":9147,"##kol":9148,"ng":9149,"entschied":9150,"##beu":9151,"##ierend":9152,"edel":9153,"hr":9154,"##ierer":9155,"##portal":9156,"##gende":9157,"geschw":9158,"21,":9159,"forscher":9160,"##pack":9161,"past":9162,"##andelt":9163,"##deck":9164,"zuverl":9165,"informieren":9166,"##horn":9167,"landrat":9168,"änderungsant":9169,"hochschul":9170,"##mn":9171,"führungs":9172,"sieh":9173,"schluß":9174,"##gelände":9175,"besetzt":9176,"gastgeber":9177,"##kla":9178,"kanzler":9179,"##position":9180,"tob":9181,"umstritten":9182,"schlägt":9183,"verbrauch":9184,"##hört":9185,"kult":9186,"kräfte":9187,"##/08/16":9188,"eintritt":9189,"##tist":9190,"##büro":9191,"emil":9192,"gesucht":9193,"figur":9194,"##etik":9195,"griechischen":9196,"##kil":9197,"vorstellung":9198,"vorstands":9199,"klang":9200,"gleicher":9201,"15,":9202,"sou":9203,"operation":9204,"erfolge":9205,"##elen":9206,"hob":9207,"zugänglich":9208,"az":9209,"stadion":9210,"##ques":9211,"klassischen":9212,"##kshop":9213,"##dollar":9214,"é":9215,"##schirm":9216,"diplom":9217,"versp":9218,"benachbar":9219,"##.2":9220,"kommentare":9221,"beschäftigte":9222,"##annen":9223,"its":9224,"fünften":9225,"siedlung":9226,"krise":9227,"53":9228,"##onien":9229,"kommunal":9230,"##quenz":9231,"geschickt":9232,"##äden":9233,"1934":9234,"saar":9235,"##artigen":9236,"##ram":9237,"##ester":9238,"##demokrat":9239,"##sinn":9240,"road":9241,"tank":9242,"frist":9243,"##row":9244,"wärme":9245,"cha":9246,"zauber":9247,"ox":9248,"##korea":9249,"##gestaltung":9250,"§":9251,"jener":9252,"##cklen":9253,"##sive":9254,"##hnten":9255,"fürs":9256,"offizielle":9257,"henry":9258,"march":9259,"##menge":9260,"##konzern":9261,"##-2":9262,"geschafft":9263,"##tial":9264,"free":9265,"amerikanische":9266,"sho":9267,"gramm":9268,"##idar":9269,"##cil":9270,"entw":9271,"anstieg":9272,"ell":9273,"vergrö":9274,"##lebt":9275,"seele":9276,"schwimm":9277,"##becken":9278,"portugies":9279,"##chron":9280,"##schn":9281,"marie":9282,"##lö":9283,"nick":9284,"wohin":9285,"##bahnen":9286,"##cas":9287,"digital":9288,"horn":9289,"preisen":9290,"anstr":9291,"lar":9292,"sorgte":9293,"##stö":9294,"##gno":9295,"bezieht":9296,"hängen":9297,"klingt":9298,"gegenstand":9299,"##,...":9300,"ordent":9301,"##igem":9302,"davor":9303,"konflikt":9304,"errichtung":9305,"##verbandes":9306,"##denz":9307,"jemanden":9308,"appar":9309,"##waff":9310,"altstadt":9311,"¡":9312,"syrien":9313,"##kriegs":9314,"experimen":9315,"regierungen":9316,"berge":9317,"abwehr":9318,"orchester":9319,"versorgung":9320,"##inas":9321,"hill":9322,"kard":9323,"##älter":9324,"##größe":9325,"kron":9326,"geschäfte":9327,"##wein":9328,"##real":9329,"bitten":9330,"wartet":9331,"gründer":9332,"##cyclop":9333,"eigentümer":9334,"erforderlichen":9335,"updated":9336,"schneider":9337,"##samen":9338,"##orgungs":9339,"##nachrichten":9340,"##freie":9341,"gewisse":9342,"->":9343,"gewöhn":9344,"##/2013":9345,"atmosphäre":9346,"power":9347,"ökonom":9348,"bewahr":9349,"hierfür":9350,"obje":9351,"verbessert":9352,"produkten":9353,"beherr":9354,"royal":9355,"übergang":9356,"besonderes":9357,"1936":9358,"mid":9359,"##cdu":9360,"potsd":9361,"rass":9362,"kommer":9363,"1900":9364,"gesperrt":9365,"##zenten":9366,"kontra":9367,"berücksichtig":9368,"verlegt":9369,"stellten":9370,"schlagen":9371,"unterhalb":9372,"achten":9373,"programms":9374,"##pend":9375,"##person":9376,"##aker":9377,"abgesch":9378,"sanierung":9379,"motto":9380,"vit":9381,"##vorsitzender":9382,"bezeichnete":9383,"brut":9384,"leichter":9385,"dm":9386,"saudi":9387,"figuren":9388,"##57":9389,"##ér":9390,"##bö":9391,"bloß":9392,"amster":9393,"muster":9394,"alfred":9395,"vorüber":9396,"##bücher":9397,"##atom":9398,"media":9399,"inspir":9400,"fix":9401,"südwesten":9402,"##äuse":9403,"##lassung":9404,"##ausstellung":9405,"isol":9406,"tirol":9407,"##jugend":9408,"verfassung":9409,"##spitze":9410,"disziplin":9411,"funktionieren":9412,"ausgeschlossen":9413,"##sidentschaft":9414,"transpar":9415,"##phen":9416,"##hängen":9417,"##frank":9418,"nimm":9419,"##media":9420,"##anzeigen":9421,"kohlen":9422,"##tung":9423,"##cts":9424,"christus":9425,"##platte":9426,"ulrich":9427,"genere":9428,"geplan":9429,"##rung":9430,"##emp":9431,"tipp":9432,"angewand":9433,"##ually":9434,"56":9435,"beinhal":9436,"##sey":9437,"##nacht":9438,"##edition":9439,"lehre":9440,"seither":9441,"dauert":9442,"##äler":9443,"weich":9444,"##klin":9445,"bühnen":9446,"gn":9447,"mör":9448,"##hd":9449,"kurzfrist":9450,"liefern":9451,"##tec":9452,"##beauftrag":9453,"niedriger":9454,"14,":9455,"angen":9456,"##zwungen":9457,"##swert":9458,"trieb":9459,"##ettel":9460,"##kette":9461,"##altete":9462,"geraten":9463,"maßnahme":9464,"##oslaw":9465,"##zene":9466,"photos":9467,"beobachten":9468,"grundlegen":9469,"##ript":9470,"##sson":9471,"##folgt":9472,"fortschritte":9473,"inklusive":9474,"green":9475,"kritisiert":9476,"geprü":9477,"verbindet":9478,"20,":9479,"nordosten":9480,"##dom":9481,"belieb":9482,"wachstums":9483,"trainings":9484,"##gemäß":9485,"##blätter":9486,"16,":9487,"heinz":9488,"vielfalt":9489,"##ips":9490,"##bien":9491,"tode":9492,"dienstleistungs":9493,"##brochen":9494,"##vorstand":9495,"erhebung":9496,"##dio":9497,"wiederhol":9498,"genossen":9499,"eishockey":9500,"entlassen":9501,"##splatz":9502,"##bungs":9503,"übernimmt":9504,"samt":9505,"territ":9506,"passieren":9507,"faktoren":9508,"späten":9509,"##max":9510,"beitragen":9511,"(20":9512,"zeitgen":9513,"durchmesser":9514,"unglaub":9515,"##dies":9516,"##euern":9517,"##behörden":9518,"nde":9519,"##lichem":9520,"##main":9521,"endgültig":9522,"##mühle":9523,"angebr":9524,"gewährt":9525,"geschichten":9526,"hyp":9527,"dringend":9528,"##hersteller":9529,"ideal":9530,"##besuch":9531,"bronze":9532,"definiert":9533,"weltkriegs":9534,"straß":9535,"gestalten":9536,"santa":9537,"welchem":9538,"##maler":9539,"11,":9540,"camping":9541,"eindeutig":9542,"ding":9543,"gelegenen":9544,"##gab":9545,"kommand":9546,"##ausgaben":9547,"marketing":9548,"##alte":9549,"normalerweise":9550,"pir":9551,"##board":9552,"unmöglich":9553,"##upfer":9554,"##organ":9555,"gegebenen":9556,"##ila":9557,"schauspielerin":9558,"##ova":9559,"##ommern":9560,"worauf":9561,"##schicht":9562,"##gegangen":9563,"##enk":9564,"##älder":9565,"anlässlich":9566,"##ori":9567,"weiße":9568,"##schrank":9569,"##lar":9570,"gemel":9571,"##eutn":9572,"mainz":9573,"##politiker":9574,"bekämpfung":9575,"joachim":9576,"touristen":9577,"städtischen":9578,"runden":9579,"handwerk":9580,"1951":9581,"stephan":9582,"spätestens":9583,"schlafen":9584,"22,":9585,"fur":9586,"singen":9587,"gross":9588,"##lechter":9589,"umfeld":9590,"neur":9591,"stärken":9592,"fürsten":9593,"##pfalz":9594,"hunder":9595,"löwen":9596,"elisabeth":9597,"schäden":9598,"##-19":9599,"abgeb":9600,"700":9601,"##kler":9602,"fan":9603,"brust":9604,"gefordert":9605,"herausforderung":9606,"##abschluss":9607,"schwanger":9608,"##istischer":9609,"jug":9610,"vorbereitet":9611,"##my":9612,"präz":9613,"aussagen":9614,"##setzte":9615,"ausreichend":9616,"##quer":9617,"leitet":9618,"niedrig":9619,"augs":9620,"gymnasium":9621,"mary":9622,"ausstattung":9623,"gespräche":9624,"woher":9625,"##sieht":9626,"##ächsischen":9627,"mini":9628,"##isl":9629,"##züglich":9630,"##zeln":9631,"bast":9632,"ahnung":9633,"rumänien":9634,"badezimmer":9635,"##schreibung":9636,"##cyclopedia":9637,"stopp":9638,"##arische":9639,"beruflichen":9640,"(8":9641,"behörde":9642,"##äb":9643,"mietwagen":9644,"##ran":9645,"nen":9646,"durfte":9647,"##vertreter":9648,"überblick":9649,"\"„":9650,"staates":9651,"##ologisch":9652,"din":9653,"##spd":9654,"dne":9655,"##retern":9656,"##vision":9657,"berufliche":9658,"##morgen":9659,"##temperatur":9660,"##feier":9661,"##küste":9662,"07.":9663,"##asi":9664,"evangelischen":9665,"kurzer":9666,"älteste":9667,"##kräften":9668,"08.":9669,"beobachtet":9670,"##kandid":9671,"##waffen":9672,"gewährleisten":9673,"hüb":9674,"##analyse":9675,"profil":9676,"##uc":9677,"##vorsitzende":9678,"##hause":9679,"grüne":9680,"klage":9681,"schicken":9682,"vierte":9683,"freunden":9684,"waffe":9685,"date":9686,"hochzeit":9687,"gestiegen":9688,"département":9689,"fung":9690,"fassung":9691,"empfehlen":9692,"gusta":9693,"ehrenamt":9694,"##geblich":9695,"hochwer":9696,"chic":9697,"##druckt":9698,"anwalt":9699,"company":9700,"##halter":9701,"alarm":9702,"schlechte":9703,"##cons":9704,"bass":9705,"kör":9706,"journalisten":9707,"det":9708,"spar":9709,"geringe":9710,"liv":9711,"##uts":9712,"##low":9713,"##porte":9714,"exter":9715,"##mutter":9716,"##empf":9717,"unklar":9718,"##/12/16":9719,"##vern":9720,"##äßt":9721,"##aute":9722,"kapitän":9723,"demokratischen":9724,"erwachsenen":9725,"internationaler":9726,"1937":9727,"instrumente":9728,"english":9729,"anhänger":9730,"gemüse":9731,"##ifiz":9732,"states":9733,"##mechan":9734,"diskutiert":9735,"##mauer":9736,"auflösung":9737,"warm":9738,"impl":9739,"schleswig":9740,"akadem":9741,"schritte":9742,"arbeitsplätze":9743,"##älde":9744,"##bedarf":9745,"##ichteten":9746,"schmerz":9747,"##fenster":9748,"##unschwei":9749,"ortschaft":9750,"erinnerung":9751,"basel":9752,"##ünde":9753,"##spartei":9754,"##spräsident":9755,"##oli":9756,"null":9757,"##verd":9758,"songs":9759,"scher":9760,"gefeiert":9761,"absolut":9762,"1914":9763,"fähigkeiten":9764,"##eutr":9765,"konflik":9766,"1929":9767,"##ero":9768,"##gendes":9769,"universitäten":9770,"·":9771,"astr":9772,"schall":9773,"haar":9774,"##uz":9775,"erhöhung":9776,"##heute":9777,"ausgeführt":9778,"spielten":9779,"gebrauch":9780,"besseren":9781,"actually":9782,"##.3":9783,"##klärt":9784,"##technologie":9785,"##ordnungen":9786,"##ais":9787,"1935":9788,"direkten":9789,"kommissar":9790,"nap":9791,"##illon":9792,"eth":9793,"##pil":9794,"bäume":9795,"angekündigt":9796,"sche":9797,"##alisieren":9798,"(+":9799,"##einhalb":9800,"##amerikanische":9801,"voran":9802,"##bruck":9803,"##encyclopedia":9804,"mitarbeitern":9805,"ägypten":9806,"nad":9807,"fließt":9808,"##ärt":9809,"materialien":9810,"erläuter":9811,"-10":9812,"übereinkommen":9813,"##iell":9814,"##ografie":9815,"##100":9816,"froh":9817,"verrückt":9818,"vorrang":9819,"yo":9820,"bestehende":9821,"##eige":9822,"fdp":9823,"##zert":9824,"##ofs":9825,"##wall":9826,"definition":9827,"##bezie":9828,"nikol":9829,"##stamm":9830,"existenz":9831,"##länge":9832,"audi":9833,"weltmeister":9834,"katastrop":9835,"##front":9836,"darstellt":9837,"##sse":9838,"##lichten":9839,"geschmack":9840,"schatten":9841,"anbieter":9842,"fordern":9843,"unglück":9844,"”":9845,"##ketball":9846,"fusion":9847,"mitteln":9848,"kroat":9849,"angep":9850,"behalten":9851,"59":9852,"nehme":9853,"##schlägen":9854,"angeschlossen":9855,"polnischen":9856,"säu":9857,"##let":9858,"theorie":9859,"##unfall":9860,"##ays":9861,"erlebt":9862,"edn":9863,"verteidigung":9864,"lizenz":9865,"supp":9866,"fakult":9867,"##dest":9868,"##div":9869,"##frauen":9870,"##akteur":9871,"theoret":9872,"ert":9873,"92":9874,"kw":9875,"lam":9876,"kok":9877,"##tlichen":9878,"gitar":9879,"aachen":9880,"calendar":9881,"ereignisse":9882,"99":9883,"regensburg":9884,"pension":9885,"##sthe":9886,"kümmern":9887,"ursache":9888,"east":9889,"problemen":9890,"paläst":9891,"1928":9892,"##einträch":9893,"erlassen":9894,"verzö":9895,"kalt":9896,"04.":9897,"spuren":9898,"##quellen":9899,"forderungen":9900,"##spur":9901,"schach":9902,"chinesischen":9903,"sy":9904,"getreide":9905,"##char":9906,"weihnachten":9907,"##ässigen":9908,"##sprachigen":9909,"rechnen":9910,"weber":9911,"love":9912,"angelegenheiten":9913,"##autor":9914,"gau":9915,"cla":9916,"##51":9917,"sichern":9918,"##fahrten":9919,"osteurop":9920,"verpflichtungen":9921,"soc":9922,"berühr":9923,"##ilien":9924,"##chern":9925,"##verhältnis":9926,"abbildung":9927,"dritter":9928,"rheinland":9929,"##kunde":9930,"sammeln":9931,"ensem":9932,"ältesten":9933,"##lichung":9934,"##ols":9935,"unterzeich":9936,"##zburg":9937,"ez":9938,"rohr":9939,"angela":9940,"räume":9941,"schulden":9942,"##ürzt":9943,"##cklenburg":9944,"ig":9945,"##berat":9946,"beck":9947,"##ummern":9948,"tok":9949,"##werden":9950,"keines":9951,"##wm":9952,"beachten":9953,"##kehren":9954,"##usalem":9955,"##ypages":9956,"bauer":9957,"##witz":9958,"anzeigen":9959,"fab":9960,"bestimmen":9961,"##]=":9962,"irgendwie":9963,"hess":9964,"euer":9965,"gefährlich":9966,"##wann":9967,"##gibt":9968,"trink":9969,"witz":9970,"sda":9971,"denkt":9972,"finanziert":9973,"cam":9974,"##tür":9975,"kostet":9976,"##ée":9977,"mineral":9978,"##mont":9979,"japanischen":9980,"##zuführen":9981,"frankfurter":9982,"##anische":9983,"assozi":9984,"##quelle":9985,"##auchen":9986,"##/06":9987,"überzeugen":9988,"##ilität":9989,"premiere":9990,"plant":9991,"respekt":9992,"##02":9993,"entdecken":9994,"schreck":9995,"lokale":9996,"jahrzehnten":9997,"auflage":9998,"favor":9999,"inszen":10000,"##klassen":10001,"##kapelle":10002,"verdäch":10003,"##set":10004,"menschlichen":10005,"leser":10006,"erwerbs":10007,"##ror":10008,"##geschwindigkeit":10009,"##fahrzeug":10010,"nordwesten":10011,"##kus":10012,"##assungen":10013,"##arab":10014,"zweier":10015,"##linder":10016,"bewegt":10017,"aufgelöst":10018,"sichtbar":10019,"umbau":10020,"72":10021,"##code":10022,"detaill":10023,"bien":10024,"startet":10025,"##wid":10026,"überwachung":10027,"##klang":10028,"marien":10029,"##wettbewerb":10030,"set":10031,"natürlichen":10032,"fonds":10033,"wächst":10034,"##hä":10035,"maur":10036,"ien":10037,"diskrimin":10038,"##ündnis":10039,"anlass":10040,"2014,":10041,"##52":10042,"##cience":10043,"stren":10044,"gleichnamigen":10045,"##ausgabe":10046,"micro":10047,"##hardt":10048,"ã":10049,"quartal":10050,"##fot":10051,"##oz":10052,"pi":10053,"gebir":10054,"##skir":10055,"##unge":10056,"medik":10057,"##teln":10058,"leuten":10059,"erstreckt":10060,"##ieger":10061,"##schel":10062,"wan":10063,"leder":10064,"##undet":10065,"enter":10066,"asd":10067,"einfl":10068,"zwischenzeit":10069,"rechtss":10070,"##field":10071,"mes":10072,"offene":10073,"anger":10074,"harry":10075,"##ietung":10076,"existiert":10077,"vorliegen":10078,"höhepunkt":10079,"##skep":10080,"wayback":10081,"##gre":10082,"##block":10083,"thu":10084,"skand":10085,"october":10086,"hinge":10087,"crawled":10088,"rauch":10089,"amsterdam":10090,"verpflichtung":10091,"königin":10092,"verschwinden":10093,"##sert":10094,"melden":10095,"zusätzlichen":10096,"##orenz":10097,"##ministerin":10098,"hals":10099,"prop":10100,"stärke":10101,"englische":10102,"##wahr":10103,"vw":10104,"kabel":10105,"##ütten":10106,"athen":10107,"##ages":10108,"##fein":10109,"##rechnung":10110,"treff":10111,"plat":10112,"einschrän":10113,"##chor":10114,"66":10115,"leiten":10116,"##wachst":10117,"braunschwei":10118,"##wanderung":10119,"nachweis":10120,"##uba":10121,"##same":10122,"##wendungen":10123,"##rainer":10124,"##fv":10125,"hallen":10126,"##tri":10127,"bezahlt":10128,"absicht":10129,"##regeln":10130,"handy":10131,"##verk":10132,"##ülern":10133,"##zit":10134,"rechnungs":10135,"ausw":10136,"##ador":10137,"##digt":10138,"ansehen":10139,"heiß":10140,"gall":10141,"signal":10142,"■":10143,"gebeten":10144,"##ious":10145,"bevorzu":10146,"mama":10147,"erfor":10148,"##ulpt":10149,"ecke":10150,"##bein":10151,"##drückt":10152,"renten":10153,"schafft":10154,"appl":10155,"##gliederung":10156,"##ituationen":10157,"state":10158,"seehofer":10159,"sekund":10160,"vereinigung":10161,"format":10162,"##mr":10163,"modelle":10164,"##bab":10165,"prinz":10166,"wähler":10167,"angeblich":10168,"hub":10169,"dvd":10170,"code":10171,"glaub":10172,"dsa":10173,"verkl":10174,"##betrag":10175,"wagner":10176,"##dc":10177,"asien":10178,"nerv":10179,"##58":10180,"aufnahmen":10181,"##ão":10182,"25,":10183,"##gei":10184,"3-":10185,"befrag":10186,"handball":10187,"##pflanz":10188,"wiederher":10189,"infl":10190,"##steine":10191,"einver":10192,"wünsche":10193,"##400":10194,"lkw":10195,"##ikanische":10196,"1925":10197,"##russ":10198,"##kind":10199,"kostenlose":10200,"temperaturen":10201,"##rin":10202,"mari":10203,"##sendung":10204,"##ikas":10205,"champions":10206,"brach":10207,"dieter":10208,"bogen":10209,"##hauer":10210,"detail":10211,"südosten":10212,"sicherlich":10213,"ht":10214,"##xe":10215,"##sens":10216,"zä":10217,"##holstein":10218,"##link":10219,"##amts":10220,"##mith":10221,"diagno":10222,"##cadem":10223,"onkel":10224,"##wenden":10225,"vermie":10226,"beeinträch":10227,"aktive":10228,"verlängerung":10229,"##.1":10230,"währung":10231,"##skeptic":10232,"##firma":10233,"mike":10234,"rufen":10235,"##thm":10236,"erwachsene":10237,"interessant":10238,"verletzungen":10239,"##verbot":10240,"##yo":10241,"##steht":10242,"know":10243,"oliver":10244,"##wohnungen":10245,"##yk":10246,"erhol":10247,"gelegentlich":10248,"verlangt":10249,"brücken":10250,"european":10251,"oberfläche":10252,"religion":10253,"##pflicht":10254,"##strategie":10255,"gouverne":10256,"##kamer":10257,"##medizin":10258,"bemerken":10259,"geplante":10260,"##5-":10261,"##agne":10262,"messen":10263,"fortschritt":10264,"werbung":10265,"kmu":10266,"hinsicht":10267,"od":10268,"distanz":10269,"##übung":10270,"übersicht":10271,"aff":10272,"bemühungen":10273,"nationalsozial":10274,"##strecken":10275,"##klage":10276,"kontakte":10277,"holte":10278,"summe":10279,"augenblick":10280,"erfolgreichen":10281,"##zl":10282,"tatsäch":10283,"##mee":10284,"##ohne":10285,"gründungs":10286,"13,":10287,"grundsatz":10288,"##sphase":10289,"niedersachsen":10290,"videos":10291,"warenkorb":10292,"kürzlich":10293,"##rik":10294,"fühl":10295,"türkischen":10296,"beihilfe":10297,"kugel":10298,"olympia":10299,"฀":10300,"##iegs":10301,"haushalte":10302,"abkommens":10303,"##ammern":10304,"##austausch":10305,"##bilanz":10306,"ware":10307,"##banken":10308,"##/19":10309,"blö":10310,"realität":10311,"##iety":10312,"ebt":10313,"reu":10314,"##bereit":10315,"einfachen":10316,"basiert":10317,"begrenzt":10318,"gesang":10319,"außergewöhn":10320,"osc":10321,"ermor":10322,"##pflege":10323,"##strahlung":10324,"umweltschutz":10325,"berater":10326,"##zoll":10327,"stan":10328,"akp":10329,"kleineren":10330,"##chnungen":10331,"fahn":10332,"ministerium":10333,"##ining":10334,"##ogan":10335,"vul":10336,"rückgang":10337,"##gelegen":10338,"schild":10339,"1924":10340,"##opfer":10341,"gegründeten":10342,"##fahrts":10343,"versteht":10344,"anerkannt":10345,"nas":10346,"bezogen":10347,"kupfer":10348,"wende":10349,"autofahrer":10350,"##häusern":10351,"sender":10352,"rief":10353,"wenden":10354,"jugoslaw":10355,"##freien":10356,"##andt":10357,"##bon":10358,"decken":10359,"##ube":10360,"##down":10361,"ago":10362,"institute":10363,"##hb":10364,"erlaub":10365,"adam":10366,"pres":10367,"abgegeben":10368,"##gewerbe":10369,"dicht":10370,"inhalte":10371,"verarbeitung":10372,"##graf":10373,"##jn":10374,"preußischen":10375,"mis":10376,"zo":10377,"##ardo":10378,"rebe":10379,"kabin":10380,"dfb":10381,"##uminium":10382,"flag":10383,"gelassen":10384,"steig":10385,"##ommer":10386,"konkre":10387,"verabschiedet":10388,"saved":10389,"law":10390,"##format":10391,"genauer":10392,"katal":10393,"geburts":10394,"##elbe":10395,"##sicherheit":10396,"ablauf":10397,"een":10398,"menschenrechte":10399,"##tre":10400,"vereinten":10401,"##hg":10402,"1932":10403,"##uter":10404,"begeistert":10405,"erkenn":10406,"erstellen":10407,"##zentrums":10408,"##wd":10409,"bell":10410,"erfolgreiche":10411,"##irr":10412,"##theater":10413,"kohl":10414,"pin":10415,"##verordnung":10416,"europameister":10417,"vorsitz":10418,"hügel":10419,"meinst":10420,"##oma":10421,"anson":10422,"züge":10423,"pel":10424,"##erl":10425,"won":10426,"spaz":10427,"##eutnant":10428,"speich":10429,"hm":10430,"##nommen":10431,"führenden":10432,"##entin":10433,"##esp":10434,"stir":10435,"-10%":10436,"diplomat":10437,"reduziert":10438,"wellen":10439,"##tele":10440,"##ems":10441,"tempel":10442,"südafrika":10443,"##rollen":10444,"freier":10445,"vorgesehenen":10446,"auswär":10447,"amtszeit":10448,"##ödie":10449,"##bat":10450,"michel":10451,"ath":10452,"wohnzimmer":10453,"republ":10454,"##bergen":10455,"96":10456,"beach":10457,"rut":10458,"##fügen":10459,"echte":10460,"zogen":10461,"zwecke":10462,"##steten":10463,"##05":10464,"empfehlung":10465,"##ustr":10466,"funk":10467,"##scheidung":10468,"eingehen":10469,"western":10470,"##invest":10471,"branchen":10472,"##ßern":10473,"##stör":10474,"anwendungen":10475,"##ladung":10476,"##/18":10477,"1927":10478,"##winkel":10479,"flexib":10480,"slowen":10481,"natürliche":10482,"schwach":10483,"##seg":10484,"27,":10485,"##js":10486,"nationaler":10487,"texas":10488,"redaktion":10489,"##ebene":10490,"weite":10491,"zeigten":10492,"##-)":10493,"##kg":10494,"##ständen":10495,"helmut":10496,"östlichen":10497,"verkaufs":10498,"jesu":10499,"##alscience":10500,"geschützt":10501,"##rau":10502,"übergeben":10503,"kontinuier":10504,"genannte":10505,"ine":10506,"schieds":10507,"gemüt":10508,"rol":10509,"##verbindung":10510,"seen":10511,"vereinigte":10512,"##odor":10513,"##kurse":10514,"2,5":10515,"sparen":10516,"schar":10517,"radik":10518,"##marktes":10519,"##otyp":10520,"nominiert":10521,"1910":10522,"##vorhaben":10523,"grem":10524,"krebs":10525,"grenzüber":10526,"##grunde":10527,"kommerzie":10528,"österreichische":10529,"ortes":10530,"##akademie":10531,"drehbuch":10532,"abgesehen":10533,"gewe":10534,"##és":10535,"##skepticalscience":10536,"##ügen":10537,"werken":10538,"##tainer":10539,"##schnitte":10540,"jerusalem":10541,"stau":10542,"adolf":10543,"##sko":10544,"sul":10545,"##saal":10546,"##tar":10547,"##handlungs":10548,"films":10549,"mittlere":10550,"##äumt":10551,"speziellen":10552,"##gru":10553,"partnerschaft":10554,"dusche":10555,"subje":10556,"dokumente":10557,"monats":10558,"57":10559,"##woche":10560,"größen":10561,"##igner":10562,"aqu":10563,"vollkommen":10564,"##forts":10565,"herbert":10566,"bibliothek":10567,"##lehrer":10568,"28,":10569,"parad":10570,"##wendung":10571,"##mond":10572,"4-":10573,"anim":10574,"anspruchs":10575,"##log":10576,"kurt":10577,"händen":10578,"tus":10579,"life":10580,"unabhängigkeit":10581,"kün":10582,"##kathol":10583,"%)":10584,"##yt":10585,"##olen":10586,"##ops":10587,"verfolgen":10588,"1:0":10589,"##zustand":10590,"ansonsten":10591,"schaft":10592,"amaz":10593,"projekten":10594,"31.12.":10595,"aussprache":10596,"brig":10597,"##wenn":10598,"hot":10599,"##ental":10600,"örtlichen":10601,"##bg":10602,"export":10603,"feind":10604,"beruh":10605,"patrick":10606,"zell":10607,"aufnehmen":10608,"##count":10609,"geprüft":10610,"gerufen":10611,"##hner":10612,"lor":10613,"bernd":10614,"gewo":10615,"speicher":10616,"rä":10617,"##reif":10618,"##haftet":10619,"chemische":10620,"##thur":10621,"abb":10622,"präsidentin":10623,"befind":10624,"##/02/17":10625,"##regelung":10626,"##offiz":10627,"june":10628,"wä":10629,"mehrerer":10630,"##ichen":10631,"buchst":10632,"##igtes":10633,"sachver":10634,"wiederholt":10635,"chicago":10636,"abends":10637,"##haushalt":10638,"zuhause":10639,"irgendwann":10640,"##betriebe":10641,"klare":10642,"##üstet":10643,"initiativen":10644,"här":10645,"eintr":10646,"verändern":10647,"marc":10648,"##ftigen":10649,"##jew":10650,"magde":10651,"preußen":10652,"vorsitzenden":10653,"solidar":10654,"notwendigen":10655,"ausdrücklich":10656,"##ktieren":10657,"pfar":10658,"##arma":10659,"##stehende":10660,"feierte":10661,"verträge":10662,"##oche":10663,"good":10664,"##ativer":10665,"##decken":10666,"französischer":10667,"##zusammen":10668,"separ":10669,"leichte":10670,"benötigen":10671,"##spezif":10672,"zugrunde":10673,"zeitweise":10674,"alltag":10675,"##oci":10676,"##önt":10677,"anbieten":10678,"viz":10679,"abgelehnt":10680,"sprung":10681,"##show":10682,"##hythm":10683,"verbot":10684,"(6)":10685,"geheimnis":10686,"##inte":10687,"##rö":10688,"gemessen":10689,"arznei":10690,"beinhaltet":10691,"##center":10692,"ft":10693,"untergebracht":10694,"##innung":10695,"first":10696,"ehrlich":10697,"falsche":10698,"bemerk":10699,"##sucht":10700,"tafel":10701,"##studium":10702,"ordnungs":10703,"isbn":10704,"vorhandenen":10705,"schicksal":10706,"konver":10707,"##schne":10708,"gh":10709,"cont":10710,"##tischer":10711,"##hörigkeit":10712,"##itation":10713,"solar":10714,"kündigte":10715,"begannen":10716,"##cf":10717,"moun":10718,"gegenteil":10719,"##riffe":10720,"jacob":10721,"fell":10722,"donau":10723,"osn":10724,"zahlungs":10725,"verlängert":10726,"##lr":10727,"##turm":10728,"pur":10729,"bester":10730,"eingetragen":10731,"trei":10732,"jährliche":10733,"nunmehr":10734,"ärger":10735,"fernse":10736,"horiz":10737,"##euen":10738,"hierher":10739,"verbrechen":10740,"ran":10741,"zwang":10742,"##pdf":10743,"einheim":10744,"innere":10745,"##fußball":10746,"##oter":10747,"##6;":10748,"kore":10749,"gewinnt":10750,"umständen":10751,"##hauptstadt":10752,"##kow":10753,"##bring":10754,"franzis":10755,"##farben":10756,"bruch":10757,"schäd":10758,"verbinden":10759,"61":10760,"town":10761,"rev":10762,"##junkt":10763,"kau":10764,"gewerkschaft":10765,"einiges":10766,"##gebnis":10767,"hut":10768,"350":10769,"express":10770,"voraussetzung":10771,"sendung":10772,"verwendeten":10773,"cann":10774,"unterlagen":10775,"##atorium":10776,"hinweg":10777,"vieles":10778,"vorange":10779,"##festival":10780,"##iale":10781,"##earch":10782,"##meier":10783,"dokumen":10784,"##oko":10785,"basketball":10786,"##ère":10787,"58":10788,"teuer":10789,"tagung":10790,"##tirol":10791,"positionen":10792,"schweine":10793,"eröffnete":10794,"nd":10795,"rn":10796,"bened":10797,"##bewahr":10798,"##macher":10799,"gästen":10800,"##verbrauch":10801,"katholische":10802,"##brie":10803,"hass":10804,"indik":10805,"##angte":10806,"##enten":10807,"stellvertreter":10808,"##zahlt":10809,"ländlichen":10810,"tee":10811,"##elekt":10812,"##basis":10813,"1921":10814,"fähr":10815,"hs":10816,"##wirtschafts":10817,"##nimmt":10818,"##manager":10819,"kais":10820,"##ietes":10821,"::":10822,"##aturen":10823,"##italien":10824,"ib":10825,"##termin":10826,"fabrik":10827,"##hochschule":10828,"stärk":10829,"workshop":10830,"×":10831,"##fehler":10832,"angebracht":10833,"##änz":10834,"dn":10835,"stücke":10836,"1923":10837,"##räder":10838,"tausend":10839,"forderung":10840,"##ilian":10841,"bahnstrecke":10842,"betreiber":10843,"vel":10844,"pie":10845,"##ktiver":10846,"leidenschaft":10847,"inns":10848,"binnenmarkt":10849,"ausgesetzt":10850,"##ique":10851,"29,":10852,"##ielle":10853,"junger":10854,"meyer":10855,"werbe":10856,"bergen":10857,"##irektion":10858,"##gleichung":10859,"##arbeitete":10860,"verbringen":10861,"ohnehin":10862,"##kund":10863,"beschränkt":10864,"konsum":10865,"ents":10866,"eier":10867,"69":10868,"##not":10869,"##echtigkeit":10870,"stadtrat":10871,"traditionell":10872,"resul":10873,"felix":10874,"mannes":10875,"##streifen":10876,"nutzt":10877,"greg":10878,"handelte":10879,"identität":10880,"loch":10881,"frühe":10882,"einstimm":10883,"benz":10884,"geograph":10885,"nahrungsmittel":10886,"##monat":10887,"##studien":10888,"##verteidiger":10889,"ray":10890,"1926":10891,"konk":10892,"##weiler":10893,"wolfs":10894,"negativ":10895,"verteidigungs":10896,"nachfolge":10897,"##wser":10898,"vorwiegend":10899,"fühlt":10900,"gna":10901,"wem":10902,"09.":10903,"##gf":10904,"kader":10905,"##ahe":10906,"manuel":10907,"lasse":10908,"##örg":10909,"mitbe":10910,"satur":10911,"##icker":10912,"manchen":10913,"centr":10914,"erlauben":10915,"05.":10916,"kriegen":10917,"##stechnik":10918,"erzielen":10919,"urkund":10920,"existieren":10921,"coll":10922,"##kä":10923,"nochmals":10924,"amtsblatt":10925,"mak":10926,"ae":10927,"womit":10928,"##fers":10929,"eil":10930,"anhalten":10931,"verursacht":10932,"ausführung":10933,"hammer":10934,"##beziehungen":10935,"zugeordnet":10936,"##vereinigung":10937,"spätere":10938,"teilt":10939,"verdacht":10940,"beding":10941,"ankunft":10942,"ersta":10943,"##web":10944,"17,":10945,"barbara":10946,"viol":10947,"gelingt":10948,"kerl":10949,"##zelt":10950,"##iche":10951,"##video":10952,"##christ":10953,"gegenwart":10954,"apost":10955,"besetzung":10956,"##öz":10957,"sla":10958,"rät":10959,"weltkrieges":10960,"79":10961,"##ito":10962,"19,":10963,"##apel":10964,"63":10965,"##verhalten":10966,"meistens":10967,"café":10968,"##alisierte":10969,"vorliegenden":10970,"##branche":10971,"##isation":10972,"nütz":10973,"##öt":10974,"böse":10975,"##günst":10976,"mist":10977,"vorkommen":10978,"##ausschuß":10979,"##ktions":10980,"beider":10981,"schnelle":10982,"bestritt":10983,"getränke":10984,"##cre":10985,"88":10986,"##abrück":10987,"verhindert":10988,"##gäste":10989,"##bevölker":10990,"liebes":10991,"##besitzer":10992,"differenz":10993,"1922":10994,"##geschäfts":10995,"##2000":10996,"##sil":10997,"dri":10998,"##ople":10999,"nrw":11000,"anmeldung":11001,"geschieht":11002,"pred":11003,"##dinand":11004,"##wirkt":11005,"aluminium":11006,"ped":11007,"##alth":11008,"july":11009,"##esco":11010,"kroatien":11011,"##renten":11012,"atem":11013,"risiken":11014,"ferienwohnung":11015,"stro":11016,"hn":11017,"##cle":11018,"##marsch":11019,"verteilung":11020,"pädagog":11021,"##0000":11022,"wiesen":11023,"pool":11024,"beliebt":11025,"##fit":11026,"göttingen":11027,"##athon":11028,"bremer":11029,"lee":11030,"tunnel":11031,"##versicher":11032,"derselben":11033,"bestätigte":11034,"##kov":11035,"##kanal":11036,"überprüfen":11037,"##(1)":11038,"aktualisierung":11039,"result":11040,"berücksichtigen":11041,"holt":11042,"besaß":11043,"anwendungs":11044,"keinem":11045,"traur":11046,"##urce":11047,"fähigkeit":11048,"##konzept":11049,"wesen":11050,"empfangen":11051,"taten":11052,"letztes":11053,"charl":11054,"dortigen":11055,"stoffe":11056,"jäger":11057,"##kischen":11058,"vertrat":11059,"his":11060,"gesetze":11061,"##schießen":11062,"kulturellen":11063,"verlangen":11064,"wesentliche":11065,"kilometern":11066,"außenminister":11067,"ign":11068,"genaue":11069,"́":11070,"##profess":11071,"moral":11072,"mühl":11073,"dampf":11074,"##got":11075,"ever":11076,"zz":11077,"datenschutz":11078,"##ßig":11079,"defen":11080,"##nachmittag":11081,"##cedes":11082,"##projekte":11083,"##icherheit":11084,"188":11085,"steckt":11086,"kategorien":11087,"##/2011":11088,"##ßten":11089,"##gefunden":11090,"##räglich":11091,"##brun":11092,"frö":11093,"gedre":11094,"kurzem":11095,"##files":11096,"##lös":11097,"##zeß":11098,"##mögen":11099,"##brücken":11100,"##igkeits":11101,"enger":11102,"##issionen":11103,"läßt":11104,"##zar":11105,"heidelberg":11106,"abenteuer":11107,"##äg":11108,"sher":11109,"kell":11110,"tempo":11111,"##bereichen":11112,"bestanden":11113,"erreichten":11114,"gefolgt":11115,"medizinische":11116,"bewaff":11117,"auftakt":11118,"florian":11119,"##üre":11120,"perform":11121,"##alu":11122,"##anna":11123,"##arda":11124,"schicht":11125,"neuse":11126,"pilot":11127,"komprom":11128,"kunststoff":11129,"entwickelten":11130,"science":11131,"joe":11132,"baute":11133,"18,":11134,"fokus":11135,"had":11136,"heilige":11137,"##behandlung":11138,"pkw":11139,"panzer":11140,"präsidentschaft":11141,"pho":11142,"abbau":11143,"##asien":11144,"dürften":11145,"##einigt":11146,"residen":11147,"halbfinale":11148,"afghan":11149,"landschafts":11150,"tn":11151,"versammlung":11152,"abstieg":11153,"antrieb":11154,"laufbahn":11155,"solltest":11156,"gezwungen":11157,"generald":11158,"##loser":11159,"kindergarten":11160,"##werfen":11161,"beschädigt":11162,"werkzeug":11163,"let":11164,"ausgesprochen":11165,"##staben":11166,"##franz":11167,"generell":11168,"nachzu":11169,"##kunden":11170,"##ín":11171,"stor":11172,"motorrad":11173,"bequ":11174,"]]":11175,"##/05":11176,"präsentieren":11177,"darmstadt":11178,"tiefen":11179,"##urcht":11180,"##-/":11181,"##ppert":11182,"typen":11183,"click":11184,"##itas":11185,"##bot":11186,"##foto":11187,"##gier":11188,"saß":11189,"brä":11190,"ausgewählt":11191,"##óç":11192,"nl":11193,"24-":11194,"##vereinbar":11195,"##imeter":11196,"lieferung":11197,"schülern":11198,"mitteilte":11199,"##gleichen":11200,"##/2012":11201,"##keln":11202,"02.":11203,"ky":11204,"leop":11205,"stehe":11206,"##fle":11207,"##misch":11208,"erzeugt":11209,"rundfunk":11210,"##behör":11211,"##ingern":11212,"##chi":11213,"andrea":11214,"integriert":11215,"traten":11216,"ausgewiesen":11217,"weiterbildung":11218,"galerie":11219,"marco":11220,"##big":11221,"inse":11222,"ehemann":11223,"erzie":11224,"standpunkt":11225,"##verletzung":11226,"litt":11227,"february":11228,"gemeldet":11229,"##fällt":11230,"ausgebaut":11231,"ingenieur":11232,"mrs":11233,"##-12":11234,"angezeigt":11235,"##âä":11236,"jederzeit":11237,"##ivals":11238,"##ariat":11239,"##pot":11240,"##úé":11241,"margar":11242,"acker":11243,"ax":11244,"06.":11245,"immun":11246,"çáâä":11247,"enge":11248,"emotion":11249,"adel":11250,"dateien":11251,"day":11252,"##zählung":11253,"##kanzler":11254,"##vg":11255,"norweg":11256,"grundlagen":11257,"çáóç":11258,"suite":11259,"flu":11260,"knochen":11261,"çáóçúé":11262,"(,":11263,"botschafter":11264,"soph":11265,"weis":11266,"##ämter":11267,"who":11268,"##standard":11269,"lasst":11270,"amate":11271,"##bauung":11272,"##wt":11273,"einigung":11274,"##geworfen":11275,"beleg":11276,"%.":11277,"verlaufen":11278,"kanal":11279,"erkannt":11280,"##/8":11281,"verletzung":11282,"sund":11283,"brachten":11284,"tieren":11285,"##genossen":11286,"oze":11287,"26,":11288,"bag":11289,"grös":11290,"bildern":11291,"profitieren":11292,"hug":11293,"scheiß":11294,"##wellen":11295,"blo":11296,"deck":11297,"diff":11298,"##iellen":11299,"##atze":11300,"about":11301,"toil":11302,"##schüler":11303,"irak":11304,"1500":11305,"christen":11306,"geringen":11307,"bürgern":11308,"normalen":11309,"##ania":11310,"##läuf":11311,"manfred":11312,"##gebirge":11313,"##ädt":11314,"nachbarn":11315,"blog":11316,"osnabrück":11317,"za":11318,"zeitgenöss":11319,"zeitungen":11320,"tiefer":11321,"errichten":11322,"opern":11323,"##ächt":11324,"konkrete":11325,"##gehalt":11326,"kilo":11327,"merk":11328,"##bevölkerung":11329,"verkaufte":11330,"##gestellten":11331,"##wertungen":11332,"##anti":11333,"##wissenschaftler":11334,"##proje":11335,"dichter":11336,"gegründete":11337,"erzbischof":11338,"##gasse":11339,"##voh":11340,"außerorden":11341,"##stadion":11342,"##ardin":11343,"##planung":11344,"umbenannt":11345,"white":11346,"##ociation":11347,"major":11348,"2-":11349,"geriet":11350,"##ason":11351,"weiss":11352,"festen":11353,"damalige":11354,"auszeichnung":11355,"##ronom":11356,"##wechselt":11357,"##fis":11358,"##ocke":11359,"beenden":11360,"##gymnasium":11361,"....":11362,"paten":11363,"ic":11364,"jüdische":11365,"##uri":11366,"##dere":11367,"1912":11368,"festgenommen":11369,"route":11370,"ferdinand":11371,"##cha":11372,"wenigstens":11373,"##programme":11374,"records":11375,"üblich":11376,"##ÿÿÿÿ":11377,"##word":11378,"überlegen":11379,"##soft":11380,"verhaftet":11381,"oberst":11382,"##ui":11383,"brutto":11384,"gustav":11385,"##hielt":11386,"kommunen":11387,"aufw":11388,"mehrmals":11389,"##gekommen":11390,"cob":11391,"fett":11392,"##kontrolle":11393,"besonderer":11394,"##fz":11395,"filmen":11396,"penn":11397,"##ässige":11398,"##rr":11399,"##oni":11400,"fakultät":11401,"ml":11402,"durchführ":11403,"helfer":11404,"zahlung":11405,"research":11406,"futter":11407,"index":11408,"##programms":11409,"schlechter":11410,"aggress":11411,"aufeinander":11412,"überraschend":11413,"schot":11414,"handlungs":11415,"reh":11416,"##elf":11417,"##llte":11418,"##ities":11419,"freundschaft":11420,"formal":11421,"richtet":11422,"beitritt":11423,"francisco":11424,"göt":11425,"##beln":11426,"##berge":11427,"staub":11428,"rio":11429,"variante":11430,"##aufnahmen":11431,"##orfer":11432,"1931":11433,"##denkmal":11434,"##beruf":11435,"sahen":11436,"##personen":11437,"##eiler":11438,"##heber":11439,"übrig":11440,"tt":11441,"long":11442,"koordinierung":11443,"games":11444,"##denburg":11445,"patri":11446,"vorn":11447,"werfen":11448,"##schreiben":11449,"dos":11450,"##eder":11451,"frühl":11452,"gei":11453,"##ments":11454,"##/15":11455,"##liter":11456,"##blin":11457,"gie":11458,"hinder":11459,"##gain":11460,"##ssitz":11461,"grupp":11462,"err":11463,"##gesagt":11464,"stehenden":11465,"prob":11466,"jord":11467,"##betten":11468,"bmw":11469,"68":11470,"mt":11471,"##ysi":11472,"synth":11473,"venedig":11474,"social":11475,"phän":11476,"##pflich":11477,"asi":11478,"10.000":11479,"january":11480,"##schild":11481,"normen":11482,"##siedlung":11483,"nachgewiesen":11484,"stab":11485,"##linger":11486,"segel":11487,"##spreis":11488,"##.),":11489,"schaffte":11490,"##tere":11491,"epis":11492,"81":11493,"##rächt":11494,"##ope":11495,"unent":11496,"##camp":11497,"südwest":11498,"##ali":11499,"##hart":11500,"77":11501,"mannheim":11502,"betreiben":11503,"zuber":11504,"bedeutende":11505,"kathar":11506,"##stal":11507,"eindr":11508,"verzwei":11509,"##schall":11510,"89":11511,"##passen":11512,"##holm":11513,"luther":11514,"entscheidend":11515,"##legungen":11516,"mögen":11517,"verliert":11518,"bundestag":11519,"erfasst":11520,"76":11521,"gelernt":11522,"verwei":11523,"tolle":11524,"cool":11525,"##junktur":11526,"bn":11527,"cru":11528,"wc":11529,"konzentrieren":11530,"diverse":11531,"ereignis":11532,"ci":11533,"gewid":11534,"überrascht":11535,"dekor":11536,"bring":11537,"landwir":11538,"unterhalt":11539,"betrachten":11540,"börsen":11541,"vorlage":11542,"mecklenburg":11543,"umfassende":11544,"gmt":11545,"schwedischen":11546,"(17":11547,"##rus":11548,"##osse":11549,"fau":11550,"ek":11551,"droht":11552,"monte":11553,"fitness":11554,"enn":11555,"brot":11556,"schmuck":11557,"vfb":11558,"gestartet":11559,"augsburg":11560,"malt":11561,"##senden":11562,"feste":11563,"aufsichts":11564,"versetzt":11565,"gekenn":11566,"grundschule":11567,"##förmig":11568,"liefert":11569,"einfacher":11570,"900":11571,"bestätigen":11572,"stütz":11573,"##sig":11574,"wahlkreis":11575,"sinnvoll":11576,"##ista":11577,"93":11578,"hockey":11579,"brunnen":11580,"##weisungen":11581,"##vermögen":11582,"tay":11583,"dreimal":11584,"eta":11585,"positiven":11586,"##gewinn":11587,"traditionelle":11588,"inhaber":11589,"##verlei":11590,"sankt":11591,"imt":11592,"run":11593,"erfolgs":11594,"unterscheidet":11595,"86":11596,"##tru":11597,"akten":11598,"kämpf":11599,"zurzeit":11600,"##gebiets":11601,"##ftige":11602,"feb":11603,"wirklichkeit":11604,"##gründer":11605,"ruhestand":11606,"society":11607,"flo":11608,"richten":11609,"geschenk":11610,"##utton":11611,"handlung":11612,"marsch":11613,"kommst":11614,"##views":11615,"##runden":11616,"branche":11617,"sele":11618,"verzichten":11619,"begründung":11620,"##verbände":11621,"}":11622,"gebraucht":11623,"##here":11624,"betreibt":11625,"##präsen":11626,"bedenken":11627,"##jon":11628,"1)":11629,"there":11630,"braunschweig":11631,"##onym":11632,"vfl":11633,"oberhalb":11634,"gesichert":11635,"regelungen":11636,"##begriff":11637,"enden":11638,"##herrschaft":11639,"##gäng":11640,"##iro":11641,"mti":11642,"potsdam":11643,"##akten":11644,"betreuung":11645,"kommentar":11646,"datenbank":11647,"ruft":11648,"itm":11649,"##familien":11650,"23,":11651,"##schließen":11652,"engagiert":11653,"exklus":11654,"koh":11655,"(9":11656,"ud":11657,"junioren":11658,"einsetzen":11659,"trafen":11660,"##ence":11661,"politischer":11662,"mercedes":11663,"67":11664,"verschwunden":11665,"tap":11666,"irgendwo":11667,"##aillen":11668,"##eider":11669,"neutr":11670,"room":11671,"hd":11672,"linz":11673,"beauft":11674,"corpor":11675,"##regen":11676,"##abschnitt":11677,"##agn":11678,"faszin":11679,"62":11680,"##krise":11681,"ät":11682,"##orchester":11683,"##news":11684,"##beschäf":11685,"abfall":11686,"##hüter":11687,"fußballspieler":11688,"sky":11689,"##itiv":11690,"gläub":11691,"##03":11692,"gescha":11693,"##teilungs":11694,"progno":11695,"schriften":11696,"infan":11697,"##üger":11698,"abwechs":11699,"##ussia":11700,"däm":11701,"klassische":11702,"empfehlungen":11703,"installation":11704,"costa":11705,"rake":11706,"##papier":11707,"lake":11708,"##teils":11709,"plattform":11710,"##pc":11711,"vortrag":11712,"academ":11713,"##ianischen":11714,"##ictionary":11715,"##jak":11716,"##angaben":11717,"grau":11718,"quadratmeter":11719,"verkün":11720,"##topic":11721,"1913":11722,"eigentum":11723,"##bri":11724,"nar":11725,"##tum":11726,"untersuchungs":11727,"##veranstaltungen":11728,"##ferenzen":11729,"quote":11730,"mathematik":11731,"##bayer":11732,"zurückzuführen":11733,"inne":11734,"og":11735,"aufgehoben":11736,"##leit":11737,"##ventionen":11738,"##sau":11739,"begrüßt":11740,"##04":11741,"##berater":11742,"wahn":11743,"geleitet":11744,"##ea":11745,"vermögens":11746,"gefl":11747,"1917":11748,"##exper":11749,"verbrachte":11750,"mittelfeld":11751,"book":11752,"##german":11753,"ergab":11754,"erzeugen":11755,"##anbul":11756,"href":11757,"keinerlei":11758,"##mobil":11759,"geboten":11760,"1.2.":11761,"stationen":11762,"kb":11763,"##outube":11764,"##verhandlungen":11765,"##initiative":11766,"##marke":11767,"abschluß":11768,"##iktor":11769,"##messe":11770,"##stufen":11771,"##punkten":11772,"thail":11773,"schwerer":11774,"##ikon":11775,"##olution":11776,"nerven":11777,"trum":11778,"gehei":11779,"marok":11780,"##prot":11781,"int":11782,"aufgerufen":11783,"tmi":11784,"coach":11785,"schied":11786,"##sf":11787,"##gesund":11788,"begründet":11789,"wovon":11790,"istanbul":11791,"final":11792,"##obel":11793,"theologie":11794,"gebäudes":11795,"##arriere":11796,"vertrieben":11797,"investoren":11798,"##staates":11799,"thüringen":11800,"##schützen":11801,"##leistet":11802,"proben":11803,"smith":11804,"##ablen":11805,"senat":11806,"##iw":11807,"einkaufs":11808,"##syn":11809,"##issement":11810,"stufe":11811,"##house":11812,"##groß":11813,"##offen":11814,"##stande":11815,"sektoren":11816,"##kos":11817,"agentur":11818,"jury":11819,"modi":11820,"alexand":11821,"spark":11822,"zählte":11823,"pfarrkirche":11824,"##omer":11825,"ies":11826,"##drucken":11827,"reagieren":11828,"##mass":11829,"kindes":11830,"gerettet":11831,"bauch":11832,"merkmale":11833,"##onomy":11834,"gebunden":11835,"##ethe":11836,"##750":11837,"cur":11838,"mä":11839,"##11.2016":11840,"erhaltung":11841,"atlan":11842,"##sea":11843,"##gründen":11844,"bedürfnisse":11845,"altar":11846,"ersetzen":11847,"vertretern":11848,"benachbarten":11849,"##asser":11850,"##ächter":11851,"##\"]=":11852,"##lech":11853,"##nehmung":11854,"##pet":11855,"3000":11856,"umzu":11857,"##ql":11858,"iss":11859,"antis":11860,"##hai":11861,"##stohlen":11862,"karlsruhe":11863,"##irurg":11864,"##plätzen":11865,"magnet":11866,"befördert":11867,"gemälde":11868,"##schaden":11869,"december":11870,"begleiten":11871,"behandeln":11872,"##strichen":11873,"##mete":11874,"streifen":11875,"##tements":11876,"mall":11877,"beträcht":11878,"sagten":11879,"türen":11880,"erlangen":11881,"##teilten":11882,"##esien":11883,"##ret":11884,"anmerk":11885,"##gig":11886,"##schrauber":11887,"##ietnam":11888,"##statistik":11889,"ausstellungen":11890,"association":11891,"##horst":11892,"##adresse":11893,"rose":11894,"julia":11895,"led":11896,"ohr":11897,"##tan":11898,"gesellschaften":11899,"oscar":11900,"symp":11901,"##greg":11902,"##ywood":11903,"##emer":11904,"##sprodu":11905,"fang":11906,"##kürz":11907,"##emm":11908,"mutmaß":11909,"##dner":11910,"leib":11911,"##ume":11912,"häufiger":11913,"schlie":11914,"##flüge":11915,"verschie":11916,"##xx":11917,"ise":11918,"seitens":11919,"berechnet":11920,"##findet":11921,"denkst":11922,"##öffent":11923,"kampag":11924,"erteilt":11925,"kriminal":11926,"##otball":11927,"##tungs":11928,"vorerst":11929,"errichtete":11930,"freiwilligen":11931,"lärm":11932,"spieltag":11933,"dimension":11934,"cham":11935,"##wich":11936,"kalender":11937,"1860":11938,"##forsch":11939,"vii":11940,"##pokal":11941,"tabak":11942,"regionall":11943,"map":11944,"innenminister":11945,"##verbr":11946,"##ökonom":11947,"herrscht":11948,"##def":11949,"##vard":11950,"maximale":11951,"##bares":11952,"verknü":11953,"tän":11954,"beweisen":11955,"tagesordnung":11956,"ehre":11957,"liss":11958,"##städter":11959,"wirt":11960,"zzgl":11961,"##franken":11962,"beher":11963,"vollständige":11964,"kulturelle":11965,"xx":11966,"räumen":11967,"sz":11968,"skulpt":11969,"sensi":11970,"30,":11971,"millimeter":11972,"##ampe":11973,"erhebliche":11974,"##parks":11975,"konzerte":11976,"sehens":11977,"jetz":11978,"very":11979,"mischung":11980,"gt":11981,"##uras":11982,"##schiffe":11983,"rücktritt":11984,"##stahl":11985,"##informationen":11986,"anst":11987,"##freunde":11988,"##peter":11989,"konrad":11990,"##1999":11991,"##wetter":11992,"public":11993,"herstellen":11994,"möbel":11995,"mehrwert":11996,"##erson":11997,"verzei":11998,"##stütz":11999,"szenen":12000,"franzosen":12001,"##pö":12002,"##wörter":12003,"##5.000":12004,"registriert":12005,"under":12006,"mario":12007,"##dik":12008,"pferd":12009,"gelegene":12010,"beitritts":12011,"##hk":12012,"lernte":12013,"##-09":12014,"erdbe":12015,"##rest":12016,"##gängen":12017,"veranstaltungs":12018,"bt":12019,"##antrag":12020,"##klein":12021,"großem":12022,"garantiert":12023,"##-11":12024,"##db":12025,"schwein":12026,"kreu":12027,"scheinen":12028,"##klen":12029,"entschuldigung":12030,"edward":12031,"verhandlung":12032,"sechsten":12033,"class":12034,"##olz":12035,"erwartungen":12036,"händler":12037,"quar":12038,"ausgerichtet":12039,"fragt":12040,"buchung":12041,"gelesen":12042,"komponenten":12043,"captain":12044,"apple":12045,"71":12046,"süddeutsche":12047,"besp":12048,"römisch":12049,"geschätzt":12050,"##jub":12051,"##ränkt":12052,"##euchtung":12053,"liege":12054,"##06":12055,"unterkünfte":12056,"##ues":12057,"##wachstum":12058,"##\\/":12059,"mobilität":12060,"arbeitskräfte":12061,"trennung":12062,"##ufo":12063,"gestohlen":12064,"##harmon":12065,"vort":12066,"##file":12067,"##ides":12068,"zumeist":12069,"##beziehung":12070,"##stunde":12071,"##hz":12072,"##asy":12073,"ausrichtung":12074,"panor":12075,"öffnet":12076,"##kab":12077,"##ibl":12078,"nachts":12079,"##adbach":12080,"entstehung":12081,"pharma":12082,"jüngeren":12083,"eintracht":12084,"##entwurf":12085,"erzeugung":12086,"##abet":12087,"aufenthalts":12088,"helm":12089,"##oke":12090,"##dlichen":12091,"##gewal":12092,"lein":12093,"gewährleistet":12094,"klagen":12095,"##oden":12096,"bewäl":12097,"abgel":12098,"##stem":12099,"gewinner":12100,"##sz":12101,"##beteiligung":12102,"mah":12103,"##verarbeitung":12104,"pierre":12105,"vereinbarungen":12106,"liegenden":12107,"##komplex":12108,"probe":12109,"##äle":12110,"##pause":12111,"##unst":12112,"non":12113,"recher":12114,"medizinischen":12115,"##bers":12116,"\")":12117,"##aufführ":12118,"##nö":12119,"chi":12120,"bundeswehr":12121,"keram":12122,"##führungen":12123,"##etzte":12124,"kommando":12125,"kassel":12126,"siegen":12127,"haare":12128,"hamm":12129,"##aufgaben":12130,"jenn":12131,"##metern":12132,"##verbindungen":12133,"anstatt":12134,"masse":12135,"##amente":12136,"umfangreiche":12137,"gegebenenfalls":12138,"gon":12139,"schienen":12140,"##dictionary":12141,"egks":12142,"geregelt":12143,"administr":12144,"bundesstaat":12145,"gebühren":12146,"herausragen":12147,"##zem":12148,"##periode":12149,"##auss":12150,"##vens":12151,"schuf":12152,"##folgerungen":12153,"wis":12154,"##reut":12155,"ernen":12156,"ergänz":12157,"reiter":12158,"##stä":12159,"##zeitraum":12160,"our":12161,"riv":12162,"erwar":12163,"skla":12164,"ausgezeich":12165,"##zahlung":12166,"enkel":12167,"beeinflusst":12168,"zweites":12169,"therapie":12170,"ruhr":12171,"behinderten":12172,"bestellung":12173,"##hamm":12174,"entschließ":12175,"##ialen":12176,"corn":12177,"##zeption":12178,"##ameter":12179,"feststellen":12180,"übersetzt":12181,"entschuldigen":12182,"lachen":12183,"come":12184,"scott":12185,"##imir":12186,"übergangs":12187,"mp":12188,"years":12189,"##fell":12190,"beat":12191,"beine":12192,"stufen":12193,"hitze":12194,"vorfeld":12195,"##verm":12196,"##niveau":12197,"ergänzen":12198,"##presse":12199,"##alo":12200,"##kk":12201,"lokomo":12202,"##ologien":12203,"verstarb":12204,"scheiterte":12205,"people":12206,"(7)":12207,"##lein":12208,"##grenzung":12209,"##xit":12210,"berechnung":12211,"##urei":12212,"2:0":12213,"innsbruck":12214,"digitale":12215,"begegnung":12216,"planeten":12217,"##vl":12218,"zuzu":12219,"scharf":12220,"veranstalter":12221,"78":12222,"##zün":12223,"84":12224,"schlechten":12225,"1.4.":12226,"ganzes":12227,"##abon":12228,"##stel":12229,"dia":12230,"garantie":12231,"vorstellungen":12232,"##gefügt":12233,"##trat":12234,"##kennt":12235,"bauten":12236,"##märkte":12237,"##belast":12238,"##(0":12239,"zugriff":12240,"reagiert":12241,"##muster":12242,"beige":12243,"elektrische":12244,"##dll":12245,"magdeburg":12246,"üblichen":12247,"gor":12248,"kontext":12249,"##bom":12250,"##fla":12251,"##én":12252,"herausgeber":12253,"kalk":12254,"ursprüngliche":12255,"##wün":12256,"##kranken":12257,"##onischen":12258,"##ähn":12259,"rs":12260,"lever":12261,"spanische":12262,"faktor":12263,"fußgänger":12264,"##wochen":12265,"zwangs":12266,"konkret":12267,"##fd":12268,"wiesbaden":12269,"spektak":12270,"##.).":12271,"furcht":12272,"drehen":12273,"hitler":12274,"##ehren":12275,"jörg":12276,"##zentrale":12277,"##ned":12278,"cer":12279,"##kie":12280,"ki":12281,"beratungs":12282,"##terung":12283,"##hütte":12284,"schwarzw":12285,"24,":12286,"konstruktion":12287,"##verlust":12288,"nahen":12289,"##ützten":12290,"erstellung":12291,"verfasst":12292,"telekommun":12293,"vereinen":12294,"menschliche":12295,"##vort":12296,"##archite":12297,"gemisch":12298,"krone":12299,"durchschnitts":12300,"borussia":12301,"gegenwärtig":12302,"##fels":12303,"wonach":12304,"##waffe":12305,"efo":12306,"lord":12307,"sonstigen":12308,"‟":12309,"##stellers":12310,"bulgarien":12311,"erläutert":12312,"finanzen":12313,"erwerbst":12314,"marcel":12315,"##lebens":12316,"oe":12317,"entf":12318,"73":12319,"selt":12320,"-,":12321,"##hold":12322,"kommunikations":12323,"##ismen":12324,"kreativ":12325,"solches":12326,"betten":12327,"pfarrei":12328,"geltenden":12329,"explos":12330,"einfuhren":12331,"##änderung":12332,"##elor":12333,"##üren":12334,"(16":12335,"marx":12336,"fassen":12337,"##alia":12338,"pdf":12339,"beliebte":12340,"tis":12341,"##/04/17":12342,"##gefühl":12343,"reifen":12344,"##konzert":12345,"tet":12346,"komplette":12347,"aufgeb":12348,"1911":12349,"à":12350,"##jm":12351,"beinahe":12352,"würdest":12353,"ard":12354,"vene":12355,"##rond":12356,"##rohr":12357,"kanz":12358,"wipe":12359,"##rund":12360,"gewerkschaften":12361,"##arbeitungs":12362,"erbe":12363,"horizont":12364,"ford":12365,"great":12366,"finanzierungs":12367,"##design":12368,"##verfahrens":12369,"ernährung":12370,"herausgegeben":12371,"prei":12372,"##stätigkeit":12373,"##engungen":12374,"yor":12375,"##uh":12376,"orden":12377,"##blü":12378,"ernähr":12379,"bewusstsein":12380,"kleidung":12381,"##läufer":12382,"##zens":12383,"pek":12384,"beschäftigen":12385,"zdf":12386,"glocken":12387,"abweichen":12388,"antonio":12389,"längere":12390,"##246;":12391,"untersuchen":12392,"wr":12393,"sagst":12394,"vizepräsident":12395,"##sehr":12396,"##cat":12397,"##mission":12398,"vermitteln":12399,"projekts":12400,"##!!":12401,"##reche":12402,"halbzeit":12403,"##eidungs":12404,"ebenda":12405,"berühmten":12406,"komponist":12407,"infos":12408,"hölle":12409,"##grä":12410,"märkte":12411,"##attung":12412,"kläger":12413,"kurfür":12414,"rfü":12415,"schwimmen":12416,"konta":12417,"bundestags":12418,"norm":12419,"lebenden":12420,"##uay":12421,"ay":12422,"##ider":12423,"üfr":12424,"##eto":12425,"##gehende":12426,"##lehre":12427,"bibel":12428,"##phil":12429,"##uen":12430,"ross":12431,"zulassung":12432,"strahl":12433,"künftigen":12434,"dahinter":12435,"##jäger":12436,"rechtzeitig":12437,"ürf":12438,"eft":12439,"rd":12440,"fielen":12441,"halben":12442,"##siv":12443,"##steig":12444,"schiffs":12445,"old":12446,"entfernen":12447,"##echt":12448,"winkel":12449,"##hans":12450,"arti":12451,"##verteilung":12452,"##geh":12453,"tüb":12454,"hörte":12455,"##sprechung":12456,"erhöhte":12457,"zyp":12458,"##wogen":12459,"publiz":12460,"##alteten":12461,"##irt":12462,"##rechtlichen":12463,"##schenden":12464,"künstlern":12465,"gedreht":12466,"rüf":12467,"##fjo":12468,"##bayern":12469,"##zessin":12470,"##zonen":12471,"küchen":12472,"##hmann":12473,"effizienz":12474,"angepasst":12475,"standards":12476,"sympt":12477,"könnt":12478,"löste":12479,"straßenbahn":12480,"berühmte":12481,"phot":12482,"##oul":12483,"##geist":12484,"83":12485,"##adel":12486,"##data":12487,"1:1":12488,"global":12489,"gala":12490,"heiraten":12491,"entworfen":12492,"##rede":12493,"##agoge":12494,"##formation":12495,"##schla":12496,"graz":12497,"schönheit":12498,"##=1":12499,"pokal":12500,"1905":12501,"##leu":12502,"##räte":12503,"sang":12504,"souver":12505,"arrond":12506,"british":12507,"##xy":12508,"5000":12509,"seminar":12510,"überwin":12511,"##lastung":12512,"ln":12513,"geliefert":12514,"verfasste":12515,"veranstaltet":12516,"angew":12517,"verbundenen":12518,"generationen":12519,"verzöger":12520,"##auswahl":12521,"nordwest":12522,"dü":12523,"##inseln":12524,"##stellern":12525,"ernte":12526,"weltcup":12527,"##hedr":12528,"##zucht":12529,"anbau":12530,"falschen":12531,"entschlossen":12532,"##schaf":12533,"meinungs":12534,"what":12535,"wiedersehen":12536,"budap":12537,"installiert":12538,"aufgegeben":12539,"##wc":12540,"##ovo":12541,"treiben":12542,"##kum":12543,"heiz":12544,"benj":12545,"--":12546,"impul":12547,"ermordet":12548,"besuchern":12549,"militärischen":12550,"genügend":12551,"eingegangen":12552,"volumen":12553,"gewidmet":12554,"buchstabe":12555,"journalist":12556,"nato":12557,"wood":12558,"##filme":12559,"##wis":12560,"klimaanlage":12561,"ungleich":12562,"##üttel":12563,"##einrichtung":12564,"schulz":12565,"belo":12566,"verwendete":12567,"bedroht":12568,"vertrages":12569,"##lieferung":12570,"##rib":12571,"fahrzeugen":12572,"##vertrags":12573,"##gow":12574,"chris":12575,"ebenen":12576,"nahrung":12577,"noten":12578,"(15":12579,"grenzt":12580,"indones":12581,"##arta":12582,"humor":12583,"befanden":12584,"setzten":12585,"//":12586,"knie":12587,"aufre":12588,"werdet":12589,"gelöst":12590,"\";":12591,"##-4":12592,"konzip":12593,"##wol":12594,"dame":12595,"papa":12596,"statistischen":12597,"##ivery":12598,"##europa":12599,"meilen":12600,"industriellen":12601,"74":12602,"wichtiges":12603,"gewässer":12604,"##bindung":12605,"doppelt":12606,"dal":12607,"##cin":12608,"dänischen":12609,"unbekannte":12610,"kevin":12611,"arthur":12612,"##ueller":12613,"##aff":12614,"##ementen":12615,"wat":12616,"ple":12617,"fahrbahn":12618,"##lab":12619,"kapazität":12620,"erfordert":12621,"##image":12622,"korru":12623,"diskussionen":12624,"benedikt":12625,"anliegen":12626,"##wg":12627,"hang":12628,"erich":12629,"angesprochen":12630,"günstig":12631,"arrondissement":12632,"versprechen":12633,"add":12634,"umfrage":12635,"##hier":12636,"gefr":12637,"##stärke":12638,"geborene":12639,"##sproblem":12640,"##weilen":12641,"genie":12642,"##verantwort":12643,"halbe":12644,"##jk":12645,"label":12646,"läch":12647,"ausser":12648,"##abilität":12649,"##chtete":12650,"zusammensetzung":12651,"##angebote":12652,"evangelische":12653,"##staatlichen":12654,"##work":12655,"ferr":12656,"94":12657,"römer":12658,"##klub":12659,"##zeichnis":12660,"migration":12661,"##trich":12662,"töchter":12663,"##igo":12664,"##gesp":12665,"##stiegen":12666,"##urlaub":12667,"voneinander":12668,"##igan":12669,"lady":12670,"schock":12671,"überre":12672,"metro":12673,"sängerin":12674,"##teams":12675,"schott":12676,"##melt":12677,"gepäck":12678,"##ferien":12679,"wissenschaften":12680,"satelliten":12681,"##assten":12682,"greifen":12683,"1907":12684,"hosp":12685,"##aria":12686,"betreut":12687,"pack":12688,"tote":12689,"##aldo":12690,"##dliche":12691,"##achteil":12692,"##meldung":12693,"synchron":12694,"##holfen":12695,"öfter":12696,"wirtschaftlich":12697,"nachhaltige":12698,"hofft":12699,"##&#246;":12700,"tan":12701,"erhalt":12702,"vergn":12703,"gymnas":12704,"##veranstaltung":12705,"weimar":12706,"konvention":12707,"jemals":12708,"stabilität":12709,"##brech":12710,"kühlschrank":12711,"##szene":12712,"beruht":12713,"##vey":12714,"homepage":12715,"föder":12716,"##rg":12717,"leitlinien":12718,"fels":12719,"sportler":12720,"##nest":12721,"günther":12722,"interessante":12723,"##aug":12724,"seil":12725,"umso":12726,"echten":12727,"##wider":12728,"leb":12729,"adels":12730,"##befehl":12731,"##achse":12732,"##ira":12733,"##preu":12734,"konzentriert":12735,"bestellt":12736,"##achtungen":12737,"##eo":12738,"überprüfung":12739,"##1994":12740,"spezifischen":12741,"argentinien":12742,"##ikaner":12743,"mb":12744,"referenz":12745,"umfasste":12746,"amar":12747,"abgerissen":12748,"oberflächen":12749,"christi":12750,"kandidat":12751,"überraschung":12752,"services":12753,"konjunktur":12754,"82":12755,"aar":12756,"##dan":12757,"update":12758,"##cing":12759,"arts":12760,"gesell":12761,"saturday":12762,"bisherige":12763,"##niederlage":12764,"ortst":12765,"verletzte":12766,"industr":12767,"frid":12768,"morgens":12769,"jahrzehnte":12770,"qualitäts":12771,"defiz":12772,"zeige":12773,"mailand":12774,"##ändischer":12775,"like":12776,"##aster":12777,"armut":12778,"grill":12779,"distr":12780,"übertragung":12781,"oftmals":12782,"rostock":12783,"ms":12784,"historiker":12785,"##fans":12786,"dumm":12787,"gehst":12788,"boch":12789,"##raucher":12790,"fertiggestellt":12791,"##folgen":12792,"##beratung":12793,"heb":12794,"##drei":12795,"##general":12796,"leichtathl":12797,"##eistet":12798,"freue":12799,"zumal":12800,"##lly":12801,"verteidigen":12802,"kaisers":12803,"##wende":12804,"verschär":12805,"##tha":12806,"erwerb":12807,"spiels":12808,"ensemble":12809,"spanisch":12810,"devel":12811,"db":12812,"stirbt":12813,"aspekt":12814,"eigentlichen":12815,"1908":12816,"lebe":12817,"##aiss":12818,"##mengen":12819,"##anni":12820,"württemberg":12821,"schlimmer":12822,"aufgew":12823,"plastik":12824,"sieb":12825,"##vö":12826,"zuschau":12827,"neustadt":12828,"##höch":12829,"##tels":12830,"befr":12831,"locker":12832,"##iehlt":12833,"theodor":12834,"##ners":12835,"semin":12836,"zeichnet":12837,"##kloster":12838,"vieh":12839,"jahrel":12840,"##mol":12841,"fragte":12842,"verblieben":12843,"bundeskanzler":12844,"beauftragt":12845,"##agerung":12846,"##aber":12847,"##orig":12848,"pazif":12849,"report":12850,"87":12851,"##fron":12852,"##itee":12853,"kritiker":12854,"finanziell":12855,"sprich":12856,"##altar":12857,"stärkung":12858,"ändert":12859,"mörder":12860,"##güter":12861,"beteiligen":12862,"bewohn":12863,"##irl":12864,"##förder":12865,"würzburg":12866,"kontrolliert":12867,"leverku":12868,"wurzeln":12869,"(†":12870,"dörfer":12871,"verstorbenen":12872,"kabinett":12873,"vorsichtig":12874,"julian":12875,"##geboren":12876,"überprüft":12877,"tam":12878,"##rain":12879,"beschloss":12880,"##mos":12881,"rue":12882,"gerichte":12883,"##pflanzen":12884,"ff":12885,"verbindlich":12886,"grunde":12887,"list":12888,"tobias":12889,"assistent":12890,"hielten":12891,"reserve":12892,"gekennzeichnet":12893,"adv":12894,"jährlichen":12895,"österreichs":12896,"zwanzig":12897,"##bezeichnung":12898,"##aga":12899,"sitze":12900,"cn":12901,"musikalische":12902,"liebt":12903,"wahlkampf":12904,"##cap":12905,"kund":12906,"früchte":12907,"heizung":12908,"paket":12909,"bang":12910,"##uff":12911,"##try":12912,"wirkungs":12913,"eva":12914,"##raf":12915,"sowjetischen":12916,"##2009":12917,"einladung":12918,"jüngste":12919,"kindheit":12920,"##alisierten":12921,"asp":12922,"gouverneur":12923,"roland":12924,"berufung":12925,"##alp":12926,"äh":12927,"derartige":12928,"##feu":12929,"dasselbe":12930,"streich":12931,"vietnam":12932,"1915":12933,"##bio":12934,"##online":12935,"game":12936,"stattf":12937,"##vgl":12938,"##rix":12939,"##werker":12940,"globalen":12941,"##banner":12942,"gesen":12943,"hollywood":12944,"##pst":12945,"##etti":12946,"2:1":12947,"##opol":12948,"##strukturen":12949,"abgeordneter":12950,"##verlauf":12951,"elektronische":12952,"junior":12953,"lissabon":12954,"##haven":12955,"pariser":12956,"##bibliothek":12957,"##riel":12958,"##gst":12959,"##anschluss":12960,"investitions":12961,"unterhaltung":12962,"glaubst":12963,"##era":12964,"thron":12965,"##verhältnisse":12966,"verzeichnis":12967,"partien":12968,"jena":12969,"##ofen":12970,"##methoden":12971,"digitalen":12972,"benachteil":12973,"##trieben":12974,"##erto":12975,"##ried":12976,"urheber":12977,"versorgungs":12978,"##ras":12979,"2)":12980,"beab":12981,"desto":12982,"iw":12983,"##eifen":12984,"##gehenden":12985,"bft":12986,"ankünd":12987,"intervention":12988,"20-":12989,"benjamin":12990,"genehmigt":12991,"##eman":12992,"drohen":12993,"##angriff":12994,"trauer":12995,"##asie":12996,"##atorin":12997,"gemeint":12998,"fühle":12999,"trenn":13000,"unterschieden":13001,"bestehend":13002,"##oppel":13003,"##fäll":13004,"bündnis":13005,"dokumentation":13006,"versamm":13007,"vision":13008,"##status":13009,"gras":13010,"spielern":13011,"aufgeteilt":13012,"wirft":13013,"##software":13014,"##stift":13015,"tsi":13016,"##gesetzes":13017,"gerechtigkeit":13018,"deu":13019,"ufa":13020,"infe":13021,"magazin":13022,"fortsetzung":13023,"hubert":13024,"vordergrund":13025,"##einsch":13026,"##sprechend":13027,"reit":13028,"98":13029,"##ía":13030,"lom":13031,"stecken":13032,"brown":13033,"türkische":13034,"schum":13035,"mang":13036,"##breite":13037,"##finder":13038,"##wortete":13039,"instituts":13040,"claud":13041,"##liebe":13042,"glaubens":13043,"zahlungen":13044,"##ankt":13045,"##suche":13046,"stars":13047,"wohnt":13048,"##schwe":13049,"##uj":13050,"geleistet":13051,"melod":13052,"##entum":13053,"ukrain":13054,"arbeite":13055,"geistes":13056,"##fia":13057,"##zed":13058,"duis":13059,"geschah":13060,"##ingenieur":13061,"angegriffen":13062,"individuelle":13063,"##lines":13064,"prominen":13065,"##ritz":13066,"##zö":13067,"berichts":13068,"nh":13069,"verhaltens":13070,"##pak":13071,"valle":13072,"fantast":13073,"##anze":13074,"vögel":13075,"##aya":13076,"##ünstler":13077,"##rip":13078,"##freu":13079,"rus":13080,"erneuert":13081,"drittländern":13082,"insekten":13083,"##aubs":13084,"wörter":13085,"wahren":13086,"alph":13087,"statistiken":13088,"rainer":13089,"origin":13090,"hohem":13091,"pon":13092,"##cast":13093,"##rl":13094,"##ssa":13095,"erlebnis":13096,"##bildungen":13097,"sven":13098,"arabischen":13099,"rub":13100,"(30":13101,"##adi":13102,"sarah":13103,"100%":13104,"unterstützte":13105,"##icke":13106,"moz":13107,"höl":13108,"premierminister":13109,"##ktischen":13110,"ausrüstung":13111,"##0,":13112,"legisl":13113,"‘":13114,"einhaltung":13115,"##ded":13116,"##kmäler":13117,"vereinigtes":13118,"academy":13119,"##energie":13120,"instand":13121,"dreißig":13122,"hong":13123,"##sprachige":13124,"##anta":13125,"steine":13126,"browser":13127,"qualit":13128,"1906":13129,"schwestern":13130,"zielen":13131,"anwohner":13132,"entscheidet":13133,"bergbau":13134,"verdienen":13135,"young":13136,"thor":13137,"##gth":13138,"erdgeschoss":13139,"2015.":13140,"schöner":13141,"technisch":13142,"einstimmig":13143,"1890":13144,"kassen":13145,"lädt":13146,"konsul":13147,"ausgestellt":13148,"nichtraucher":13149,"##äher":13150,"zuständige":13151,"versprochen":13152,"kürze":13153,"konsequenzen":13154,"nochmal":13155,"fasch":13156,"solo":13157,"##icc":13158,"wolken":13159,"nvo":13160,"##esn":13161,"jim":13162,"energien":13163,"##boote":13164,"korn":13165,"samen":13166,"##ürzte":13167,"blue":13168,"taxi":13169,"hind":13170,"##arg":13171,"ordens":13172,"strafe":13173,"maus":13174,"##serien":13175,"verteidiger":13176,"##änderungen":13177,"spons":13178,"rhythm":13179,"##.;":13180,"##dacht":13181,"##änner":13182,"herab":13183,"##auto":13184,"gör":13185,"voraussichtlich":13186,"fie":13187,"bakter":13188,"##“).":13189,"vorsicht":13190,"##nutzung":13191,"arbeitszeit":13192,"europäisches":13193,"##/2009":13194,"ß":13195,"straft":13196,"erleichtern":13197,"marktes":13198,"##09":13199,"##-05":13200,"vno":13201,"abgeordnete":13202,"fat":13203,"fär":13204,"bildhauer":13205,"uwe":13206,"luc":13207,"##umpen":13208,"unterrichtet":13209,"##ächtnis":13210,"künste":13211,"ausstellungs":13212,"aer":13213,"##ässigkeit":13214,"mobile":13215,"investiert":13216,"kompetenz":13217,"performance":13218,"heut":13219,"gesammelt":13220,"erfuhr":13221,"planen":13222,"ähnlichen":13223,"spannung":13224,"##dienstes":13225,"arsch":13226,"91":13227,"##onduras":13228,"##hus":13229,"##ped":13230,"##anie":13231,"rande":13232,"praktische":13233,"ovn":13234,"ortschaften":13235,"antisemit":13236,"bestätigung":13237,"hingewiesen":13238,"gepf":13239,"aufwand":13240,"leverkusen":13241,"š":13242,"##conom":13243,"##zügen":13244,"ursprungs":13245,"kristall":13246,"folgendes":13247,"halbinsel":13248,"jackson":13249,"bj":13250,"werkstatt":13251,"nikolaus":13252,"##richtlinie":13253,"akzeptieren":13254,"##stor":13255,"clo":13256,"##etischen":13257,"nju":13258,"##mitarbeiter":13259,"budapest":13260,"versorgt":13261,"angrenzen":13262,"promoviert":13263,"heck":13264,"##stall":13265,"beschuld":13266,"nass":13267,"unglaublich":13268,"schull":13269,"##wordpress":13270,"streng":13271,"angekommen":13272,"dorn":13273,"einzug":13274,"becker":13275,"gedenk":13276,"konzentration":13277,"##mun":13278,"angleichung":13279,"übersetz":13280,"##feln":13281,"key":13282,"##phy":13283,"##inhaber":13284,"mitglieds":13285,"##schuld":13286,"südtirol":13287,"umgebaut":13288,"nase":13289,"spekul":13290,"verfügbaren":13291,"erreichbar":13292,"##listen":13293,"christlichen":13294,"schönsten":13295,"zypern":13296,"weichen":13297,"##regionen":13298,"##kollegen":13299,"bewertet":13300,"##aph":13301,"migranten":13302,"##cfs":13303,"prozesse":13304,"ausgebildet":13305,"viktor":13306,"aufzunehmen":13307,"##krimin":13308,"brexit":13309,"##next":13310,"##_1":13311,"##nischen":13312,"sauerstoff":13313,"##öser":13314,"planungs":13315,"##eser":13316,"lauter":13317,"##schütz":13318,"gift":13319,"##–17":13320,"##eichert":13321,"tos":13322,"##etsch":13323,"##etscher":13324,"alben":13325,"##prüf":13326,"zertifiz":13327,"##dra":13328,"neuesten":13329,"onv":13330,"vorsprung":13331,"##ario":13332,"pyr":13333,"##versuch":13334,"landgericht":13335,"##sts":13336,"jn":13337,"herange":13338,"##dk":13339,"##oi":13340,"##pommern":13341,"mündet":13342,"parken":13343,"##aubt":13344,"##ergie":13345,"vermutet":13346,"krankheiten":13347,"##wachs":13348,"god":13349,"##elemente":13350,"gabriel":13351,"myth":13352,"entscheidungs":13353,"check":13354,"schwanz":13355,"kenntnisse":13356,"##gels":13357,"##forscher":13358,"gesetzlichen":13359,"konto":13360,"central":13361,"angelegenheit":13362,"begünst":13363,"##anhalt":13364,"südöstlich":13365,"##fisch":13366,"##aki":13367,"bean":13368,"##aissance":13369,"reine":13370,"gastronom":13371,"chinesische":13372,"##leihen":13373,"konkreten":13374,"dou":13375,"##ete":13376,"ausländer":13377,"gerü":13378,"schätzen":13379,"##gal":13380,"organe":13381,"##ades":13382,"weh":13383,"football":13384,"vielfach":13385,"##ior":13386,"##kins":13387,"##fass":13388,"##strahlt":13389,"β":13390,"amazon":13391,"fortan":13392,"rail":13393,"warn":13394,"##ators":13395,"##mg":13396,"haust":13397,"eag":13398,"argument":13399,"öffentlicher":13400,"fron":13401,"##kömm":13402,"mithilfe":13403,"##198":13404,"##asa":13405,"##anders":13406,"verfügbarkeit":13407,"##07":13408,"wollt":13409,"##porter":13410,"##anter":13411,"##rekord":13412,"vorwürfe":13413,"leopold":13414,"senior":13415,"williams":13416,"toren":13417,"##ovic":13418,"schuhe":13419,"aur":13420,"metal":13421,"frankreichs":13422,"##zahlungen":13423,"buchstaben":13424,"anklage":13425,"tanzen":13426,"schnellen":13427,"##uns":13428,"südwestlich":13429,"##rea":13430,"highl":13431,"##produkt":13432,"organisieren":13433,"lev":13434,"bomben":13435,"gefährdet":13436,"##nat":13437,"##laub":13438,"katzen":13439,"angehörigen":13440,"##volumen":13441,"erstaun":13442,"antreten":13443,"legend":13444,"belastung":13445,"1916":13446,"malerei":13447,"##',":13448,"##flucht":13449,"gebäuden":13450,"schriftlich":13451,"centre":13452,"##landschaft":13453,"1/":13454,"beurteilung":13455,"gezählt":13456,"märchen":13457,"##garter":13458,"schulter":13459,"maßgeblich":13460,"level":13461,"einschätzung":13462,"##fahrzeugen":13463,"##ić":13464,"kru":13465,"museen":13466,"zuschauern":13467,"obersten":13468,"weibchen":13469,"##sebene":13470,"versuchten":13471,"transparenz":13472,"##strö":13473,"eigentliche":13474,"##mäh":13475,"##hodo":13476,"sollst":13477,"achtung":13478,"wahnsinn":13479,"##acken":13480,"##kohle":13481,"momentan":13482,"gewal":13483,"##delivery":13484,"stress":13485,"cel":13486,"lem":13487,"##stuft":13488,"jones":13489,"teilnehmern":13490,"##ukle":13491,"##schlüssel":13492,"zunahme":13493,"track":13494,"angemel":13495,"ausgenommen":13496,"ralf":13497,"vorjahres":13498,"1870":13499,"inc":13500,"opf":13501,"linden":13502,"##lied":13503,"kurse":13504,"ds":13505,"kardinal":13506,"##onomie":13507,"##rischen":13508,"berufsbildung":13509,"image":13510,"komponisten":13511,"denkmalschutz":13512,"künftige":13513,"einander":13514,"##gefahr":13515,"tum":13516,"hunger":13517,"vermittelt":13518,"nahrungs":13519,"##hum":13520,"dorthin":13521,"großzüg":13522,"roth":13523,"##verträge":13524,"##olas":13525,"##mach":13526,"bedient":13527,"##ärtner":13528,"cook":13529,"nutzte":13530,"##villa":13531,"propag":13532,"usd":13533,"tp":13534,"walt":13535,"##hall":13536,"helden":13537,"##berichte":13538,"ty":13539,"einblick":13540,"derzeitigen":13541,"##fju":13542,"raub":13543,"josé":13544,"1904":13545,"angefangen":13546,"##höfe":13547,"gewannen":13548,"##uner":13549,"gesorgt":13550,"reparatur":13551,"##nütz":13552,"##gesetzte":13553,"##ries":13554,"brauer":13555,"cons":13556,"bewähr":13557,"##ministeriums":13558,"festung":13559,"porträt":13560,"massiv":13561,"##ässe":13562,"bildeten":13563,"##gee":13564,"mieten":13565,"sozialdemokrat":13566,"beschreiben":13567,"1909":13568,"##onia":13569,"individuell":13570,"##sorge":13571,"ergebnissen":13572,"nordwestlich":13573,"gekl":13574,"kast":13575,"##bla":13576,"slowakei":13577,"place":13578,"unterzeichnet":13579,"hochschulen":13580,"bekanntesten":13581,"restlichen":13582,"königlichen":13583,"##utete":13584,"gestalt":13585,"insol":13586,"gerichtet":13587,"##probe":13588,"##reiten":13589,"pay":13590,"##entscheid":13591,"langfristig":13592,"grafschaft":13593,"##turnier":13594,"aufhebung":13595,"landtagswahl":13596,"bischofs":13597,"andern":13598,"fs":13599,"sib":13600,"metz":13601,"##systemen":13602,"##mate":13603,"##ough":13604,"appell":13605,"gewachsen":13606,"spazier":13607,"water":13608,"apothe":13609,"julius":13610,"champion":13611,"kaufte":13612,"##fie":13613,"##sleiter":13614,"##grundlage":13615,"niedrigen":13616,"aufhören":13617,"support":13618,"##-5":13619,"bedingt":13620,"yemen":13621,"##nische":13622,"##machung":13623,"##sparen":13624,"nächstes":13625,"##studio":13626,"organisierte":13627,"hättest":13628,"kooperations":13629,"unterhalten":13630,"bohr":13631,"##amtes":13632,"##kost":13633,"unbekannt":13634,"##juni":13635,"jenseits":13636,"bekämp":13637,"reduzieren":13638,"1899":13639,"##ingham":13640,"leiche":13641,"##kenn":13642,"bewerber":13643,"geladen":13644,"tschechischen":13645,"##olid":13646,"kno":13647,"durften":13648,"##gipfel":13649,"##öglich":13650,"profi":13651,"apartments":13652,"verpa":13653,"vertraut":13654,"situationen":13655,"##bringung":13656,"franç":13657,"ignor":13658,"user":13659,"urkundlich":13660,"##fahrung":13661,"##08":13662,"##motoren":13663,"kit":13664,"barock":13665,"militärische":13666,"gul":13667,"##magazin":13668,"##venz":13669,"kuchen":13670,"einziger":13671,"kump":13672,"agent":13673,"##ingu":13674,"beauftrag":13675,"##aro":13676,"##räuch":13677,"territor":13678,"promovierte":13679,"##refer":13680,"zellen":13681,"katharina":13682,"spezifische":13683,"ohren":13684,"##onomen":13685,"juan":13686,"wozu":13687,"schaut":13688,"effekt":13689,"##skammer":13690,"##ways":13691,"+0000":13692,"aufgefordert":13693,"rüst":13694,"mg":13695,"heuer":13696,"goldenen":13697,"eingereicht":13698,"königreichs":13699,"umfassenden":13700,"abschied":13701,"eventuell":13702,"##tee":13703,"bezeichnen":13704,"ansprüche":13705,"make":13706,"##isser":13707,"eni":13708,"verarbeiten":13709,"engen":13710,"eingeleitet":13711,"perspektive":13712,"benn":13713,"amerikaner":13714,"kalten":13715,"##ross":13716,"light":13717,"gewerb":13718,"wissens":13719,"jeff":13720,"##tigkeiten":13721,"dum":13722,"kostenfrei":13723,"organisator":13724,"##europameister":13725,"fut":13726,"wör":13727,"reduz":13728,"##still":13729,"##strahl":13730,"##gerecht":13731,"##bronn":13732,"entsp":13733,"fließen":13734,"##verwaltungs":13735,"##etta":13736,"board":13737,"nordöstlich":13738,"gefasst":13739,"schlicht":13740,"belgischen":13741,"##teren":13742,"##ersatz":13743,"ausflug":13744,"##kirch":13745,"##mers":13746,"##2015,":13747,"wofür":13748,"look":13749,"fortgesetzt":13750,"##any":13751,"aufstellung":13752,"anschein":13753,"2:":13754,"py":13755,"respe":13756,"##ruh":13757,"##aj":13758,
[...]
